{"version":"1.0","truncation":null,"padding":null,"added_tokens":[{"id":0,"special":true,"content":"<unk>","single_word":false,"lstrip":false,"rstrip":false,"normalized":false}],"normalizer":{"type":"NFKC"},"pre_tokenizer":{"type":"Metaspace","replacement":"▁","str_rep":"▁","add_prefix_space":true},"post_processor":null,"decoder":{"type":"Metaspace","replacement":"▁","str_rep":"▁","add_prefix_space":true},"model":{"dropout":null,"unk_token":null,"continuing_subword_prefix":null,"end_of_word_suffix":null,"fuse_unk":false,"vocab":{"<unk>":0,"\n":1,"!":2,",":3,".":4,":":5,"?":6,"a":7,"b":8,"c":9,"d":10,"e":11,"f":12,"g":13,"h":14,"i":15,"j":16,"k":17,"l":18,"m":19,"n":20,"o":21,"p":22,"q":23,"r":24,"s":25,"t":26,"u":27,"v":28,"w":29,"x":30,"y":31,"z":32,"ä":33,"å":34,"ö":35,"▁":36,"▁\n":37,"in":38,"en":39,"▁k":40,"ta":41,"▁s":42,"an":43,"is":44,"▁j":45,"ll":46,"▁h":47,"▁m":48,"tä":49,"▁o":50,"än":51,"▁p":52,"▁v":53,"▁t":54,"et":55,"ka":56,"ut":57,"▁n":58,"▁ja":59,"li":60,"as":61,"at":62,"it":63,"un":64,"ti":65,"▁l":66,"es":67,"ik":68,"sa":69,".\n":70,"el":71,"▁jo":72,"▁hän":73,"si":74,"▁a":75,"ei":76,"uo":77,"er":78,"▁si":79,"uu":80,"aa":81,"on":82,"▁va":83,"▁r":84,"oi":85,"ell":86,"yt":87,"ma":88,"us":89,"▁ta":90,"▁oli":91,"▁ku":92,"een":93,"▁on":94,"▁ka":95,"sä":96,"ki":97,"▁ko":98,"ää":99,"▁se":100,"ko":101,"il":102,"lla":103,"ks":104,"mm":105,"▁ni":106,"▁pa":107,"vat":108,"kin":109,"lle":110,"ään":111,"ät":112,"▁y":113,"tu":114,"utta":115,"▁et":116,"isi":117,"▁mi":118,"▁ol":119,"▁tä":120,"▁ei":121,"▁vi":122,"..":123,"ul":124,"to":125,"va":126,"te":127,"ja":128,"▁sa":129,"inä":130,"ista":131,"ksi":132,"ke":133,"▁e":134,"inen":135,"ih":136,"la":137,"ur":138,"llä":139,"▁niin":140,"ot":141,"uh":142,"▁en":143,"äh":144,"▁ki":145,"▁mutta":146,"ri":147,"ten":148,"ku":149,"ty":150,"▁la":151,"asta":152,"iv":153,"os":154,"ne":155,"▁ky":156,"▁kun":157,"eh":158,"▁että":159,"äs":160,"▁ma":161,"pa":162,"▁to":163,"a,":164,"▁kuin":165,"▁pi":166,"mi":167,"▁san":168,"▁nä":169,"oin":170,"▁ha":171,",\n":172,"mä":173,"den":174,"taa":175,"kaan":176,"isen":177,"▁po":178,"▁hänen":179,"maan":180,"em":181,"▁sen":182,"▁ra":183,"yö":184,"▁he":185,"vi":186,"▁mu":187,"▁an":188,"se":189,"elä":190,"ina":191,"▁min":192,"ra":193,"▁kaik":194,"pp":195,"▁tu":196,"▁as":197,"kä":198,"vät":199,"▁joka":200,"tää":201,"▁kä":202,"▁ti":203,"▁jos":204,"uk":205,"▁pää":206,"kaa":207,"nyt":208,"▁il":209,"▁is":210,"▁mitä":211,"▁sy":212,"assa":213,"▁nyt":214,"▁minä":215,"▁hy":216,"▁vä":217,"ee":218,"tan":219,"ellä":220,"▁tuo":221,"istä":222,"van":223,"▁al":224,"▁kuu":225,"vä":226,"hd":227,"ises":228,"...":229,"ella":230,"pä":231,"ys":232,"▁ih":233,"mme":234,"▁kat":235,"itä":236,"oit":237,"▁kan":238,"▁tun":239,"im":240,"llut":241,"▁ole":242,"rj":243,"ist":244,"man":245,"uks":246,"aan":247,"ui":248,"elle":249,"▁hei":250,"▁it":251,"▁pal":252,"taan":253,"▁läh":254,"rk":255,"▁li":256,"▁sin":257,"▁her":258,"dän":259,"▁sit":260,"▁te":261,"▁tul":262,"▁val":263,"uol":264,"issa":265,"essa":266,"▁sitä":267,"yy":268,"ua":269,"essä":270,"pi":271,"ikä":272,"?\n":273,"▁puh":274,"▁ne":275,"▁ä":276,"▁saa":277,"▁men":278,"tui":279,"▁no":280,"▁huo":281,"▁kas":282,"kas":283,"▁yh":284,"asti":285,"▁kaikki":286,"tel":287,"▁ja\n":288,"▁jä":289,"eli":290,"usta":291,"mat":292,"na":293,"▁pä":294,"▁vasta":295,"män":296,"rv":297,"jat":298,"in\n":299,"▁ker":300,"in,":301,"▁so":302,"kka":303,"▁kyl":304,"▁ollut":305,"ha":306,"han":307,"iset":308,"▁voi":309,":\n":310,"lloin":311,"uma":312,"▁suu":313,"!\n":314,"tti":315,"asi":316,"ran":317,"▁sil":318,"dä":319,"▁var":320,"kö":321,"lä":322,"▁olisi":323,"▁sitten":324,"▁ihm":325,"...\n":326,"ir":327,"▁vielä":328,"issä":329,"ken":330,"isesti":331,"▁na":332,"ta,":333,"▁suo":334,"tun":335,"estä":336,"▁er":337,"tö":338,"▁luo":339,"nut":340,"▁juma":341,"kan":342,"eni":343,"▁vaik":344,"iksi":345,"teli":346,"emm":347,"▁lo":348,"kki":349,"▁kuul":350,"▁us":351,"esi":352,"▁sillä":353,"per":354,"▁vuo":355,"▁jot":356,"koi":357,"ni":358,"▁tai":359,"lo":360,"▁hi":361,"▁koh":362,"yh":363,"▁tie":364,"▁lu":365,"▁päiv":366,"▁maa":367,"ky":368,"▁b":369,"tiin":370,"▁kul":371,"▁sinä":372,"jä":373,"▁per":374,"jan":375,"eksi":376,"jen":377,"▁olivat":378,"▁kos":379,"▁sanoi":380,"▁van":381,"▁hä":382,"▁sano":383,"▁pit":384,"▁siitä":385,"▁kes":386,"ssa":387,"▁su":388,"eet":389,"iten":390,"a\n":391,"maa":392,"▁le":393,"kun":394,"▁elä":395,"up":396,"▁kats":397,"ön":398,"stä":399,"me":400,"▁jon":401,"ike":402,"lta":403,"▁toi":404,"▁vain":405,"kään":406,"▁ri":407,"nen":408,"hän":409,"▁silloin":410,"rin":411,"▁ai":412,"▁muu":413,"esta":414,"▁ajat":415,"isin":416,"tään":417,"uud":418,"isten":419,"men":420,"vän":421,"tei":422,"▁vaan":423,"nä":424,"▁koko":425,"▁ed":426,"▁miel":427,"ol":428,"▁tuli":429,"▁mat":430,"▁jota":431,"ud":432,"▁me":433,"▁teh":434,"een,":435,"▁aa":436,"tanut":437,"lle,":438,"▁aina":439,"kuin":440,"▁jotka":441,"ä,":442,"vin":443,"▁tämä":444,"en\n":445,"yn":446,"ro":447,"▁häntä":448,"▁het":449,"yttä":450,"a.":451,"▁myö":452,"hti":453,"pe":454,"▁ovat":455,"▁tei":456,"▁lap":457,"etta":458,"▁itse":459,"▁siinä":460,"▁par":461,"ona":462,"▁eikä":463,"▁ke":464,"▁oike":465,"ho":466,"ita":467,"▁nuo":468,"isa":469,"▁ään":470,"▁olla":471,"an,":472,"mään":473,"ansa":474,"yi":475,"isti":476,"▁heidän":477,"mät":478,"▁mei":479,"uut":480,"uksen":481,"▁puol":482,"rs":483,"uus":484,"▁tar":485,"an\n":486,"neet":487,"▁asi":488,"inö":489,"▁kys":490,"▁lä":491,"i,":492,"toi":493,"▁ho":494,"▁pel":495,"ssä":496,"lleen":497,"▁olen":498,"▁taas":499,"tin":500,"▁mitään":501,"tta":502,"▁i":503,"vo":504,"▁väh":505,"▁yl":506,"▁tää":507,"▁hel":508,"▁väinö":509,"▁sel":510,"▁:":511,"▁kylmä":512,"mmä":513,"äär":514,"▁kor":515,"lk":516,"mo":517,"ksen":518,"jo":519,"mp":520,"i\n":521,"▁siellä":522,"iden":523,"▁mieh":524,"ino":525,"uun":526,"llis":527,"▁suur":528,"ittä":529,"▁minun":530,"ä\n":531,"ettu":532,"▁kasper":533,"eltä":534,"▁f":535,"sin":536,"▁:d":537,"▁vaikka":538,"▁kylmälä":539,"▁kylmälä:":540,"lan":541,"▁hil":542,"▁d":543,"▁jonka":544,"kseen":545,"▁aiv":546,"▁muut":547,"▁tot":548,"ossa":549,"▁har":550,"massa":551,"öy":552,"hin":553,"▁ik":554,"▁ver":555,"▁kyllä":556,"▁ro":557,"inn":558,"etti":559,"▁ul":560,"ve":561,"▁ennen":562,"ensä":563,"san":564,"▁siih":565,"▁työ":566,"▁kirj":567,"▁mar":568,"▁juu":569,"▁seur":570,"ässä":571,"tä,":572,"ulle":573,"▁yks":574,"vaa":575,"kon":576,"▁käy":577,"uksi":578,"▁isän":579,"▁tah":580,"▁mon":581,"▁eivät":582,"ästi":583,"iko":584,"▁ar":585,"▁sä":586,"▁its":587,"tuu":588,"▁oli\n":589,"▁täyt":590,"ille":591,"▁ettei":592,"▁näh":593,"ia":594,"malla":595,"unut":596,"isia":597,"▁hal":598,"▁kaa":599,"▁kanssa":600,"▁enää":601,"▁el":602,"▁käs":603,"▁hyvä":604,"▁herra":605,"▁hen":606,"▁väinö:":607,"▁pois":608,"▁siihen":609,"▁alkoi":610,"▁muuta":611,"että":612,"▁jumala":613,"itti":614,"jaa":615,"▁sis":616,"▁saat":617,"le":618,"teen":619,"▁yli":620,"▁mies":621,"ulla":622,"▁vai":623,"▁syn":624,"▁mikä":625,"▁vier":626,"▁un":627,"tunut":628,"▁:d\n":629,"he":630,"koon":631,"▁olet":632,"ker":633,"kea":634,"▁hänelle":635,"re":636,"asto":637,"▁las":638,"da":639,"ta\n":640,"▁tal":641,"otta":642,"sa,":643,"▁rah":644,"tyi":645,"▁hän\n":646,"dät":647,"ime":648,"mis":649,"▁pan":650,"iti":651,"▁aivan":652,"kee":653,"kää":654,"kin,":655,"ton":656,"▁huu":657,"▁juo":658,"▁ran":659,"▁ve":660,"▁tapa":661,"in.":662,"ana":663,"hta":664,"▁palj":665,"▁hänet":666,"▁kuinka":667,"▁jan":668,"en,":669,"▁jes":670,"▁kau":671,"▁g":672,"po":673,"ytti":674,"▁usko":675,"▁pitä":676,"vää":677,"tom":678,"▁vaa":679,"osta":680,"ika":681,"▁sinun":682,"ila":683,"una":684,"ivät":685,"▁myös":686,"▁kuiten":687,"oika":688,"oa":689,"▁ty":690,"etty":691,"▁tule":692,"▁siis":693,"▁tur":694,"▁kuo":695,"▁os":696,"▁sella":697,"▁saan":698,"▁c":699,"▁jul":700,"inen,":701,"▁pe":702,"utti":703,"▁viime":704,"▁eh":705,"kin\n":706,"▁nik":707,"▁tämän":708,"▁kut":709,"▁niitä":710,"▁tulee":711,"▁miten":712,"uuden":713,"▁sai":714,"▁es":715,"▁mer":716,"mit":717,"▁mä":718,"illa":719,"▁yhtä":720,"ista,":721,"▁jesse":722,"▁mut":723,"▁met":724,"▁niinkuin":725,"▁ter":726,"lit":727,"ven":728,"tele":729,"▁aino":730,"tua":731,"usi":732,"▁ot":733,"▁maail":734,"vit":735,"ja,":736,"▁arv":737,"ästä":738,"▁joku":739,"isto":740,"ikka":741,"▁ensi":742,"kus":743,"ukko":744,"▁kar":745,"▁sekä":746,"▁kerran":747,"ltä":748,"▁vel":749,"▁ymmä":750,"▁paljon":751,"e\n":752,"▁tois":753,"urs":754,"vasti":755,"kel":756,"mma":757,"▁tässä":758,"▁pien":759,"▁kään":760,"oita":761,"mpä":762,"▁oo":763,"▁vit":764,"▁jossa":765,"▁tän":766,"an.":767,"ver":768,"▁pys":769,"▁vanh":770,"▁kol":771,"änä":772,"▁ihan":773,"▁kät":774,"lla,":775,"uko":776,"▁tyt":777,"uutta":778,"▁od":779,"ppi":780,"▁kir":781,"um":782,"mmen":783,"rit":784,"empi":785,"▁ymmär":786,"id":787,"▁ympä":788,"▁katso":789,"▁liik":790,"▁tod":791,"lainen":792,"vel":793,"▁juuri":794,"unn":795,"▁onn":796,"▁ilm":797,"▁jat":798,"uta":799,"sta":800,"▁tava":801,"essään":802,"a.\n":803,"pää":804,"▁oh":805,"▁kuol":806,"paa":807,"een.":808,"▁ken":809,"▁kaun":810,"▁täällä":811,"▁seis":812,"▁aik":813,"▁isä":814,"▁mo":815,"▁sat":816,"▁laps":817,"ellen":818,"▁kaup":819,"▁pol":820,"▁jälk":821,"▁aika":822,"in.\n":823,"yty":824,"▁minua":825,"▁kirk":826,"▁rakas":827,"kko":828,"ili":829,"otti":830,"▁nuor":831,"▁luu":832,"my":833,"▁syö":834,"▁koska":835,"ensa":836,"ettiin":837,"ikko":838,"▁pääs":839,"llinen":840,"▁ruo":841,"▁voin":842,"iks":843,"▁py":844,"no":845,"matta":846,"▁kaar":847,"▁lö":848,"▁tus":849,"▁hu":850,"hden":851,"min":852,"▁yhä":853,"▁vas":854,"▁juh":855,"▁re":856,"▁kasv":857,"▁uh":858,"de":859,"▁poika":860,"▁lop":861,"▁sur":862,"▁tiet":863,"ä.":864,"▁palo":865,"▁laul":866,"oo":867,"▁on\n":868,"▁lain":869,"▁suuri":870,"eensä":871,"oitta":872,"▁ann":873,"ussa":874,"ikki":875,"▁vo":876,"tänyt":877,"▁kysy":878,"▁rauh":879,"ksi,":880,"▁epä":881,"een\n":882,"▁näin":883,"▁naur":884,"▁jumalan":885,"▁vir":886,"essaan":887,"▁hilja":888,"▁sinne":889,"▁pu":890,"▁maan":891,"▁osa":892,"▁sisä":893,"lle.":894,"▁mieli":895,"mista":896,"aa,":897,"▁hyvin":898,"▁sul":899,"▁por":900,"itse":901,"▁palo:":902,"▁tuu":903,"istu":904,"hon":905,"ppa":906,"ikö":907,"▁herr":908,"▁näky":909,"itsi":910,"astaan":911,"ikin":912,"▁vähän":913,"▁pitää":914,"uka":915,"▁pyy":916,"▁taka":917,"▁janne":918,"tar":919,"et,":920,"▁sydä":921,"elta":922,"▁matti":923,"▁niin,":924,"▁missä":925,"ing":926,"ksa":927,"▁jää":928,"▁hänen\n":929,"▁siel":930,"lais":931,"▁väli":932,"onsa":933,"utui":934,"llisen":935,"istel":936,"▁w":937,"on,":938,"▁vaim":939,"▁minulle":940,"▁saanut":941,"▁ven":942,"▁kuitenkin":943,"maan,":944,"▁vih":945,"▁elämän":946,"▁yö":947,"▁pain":948,"▁pyh":949,"▁käsi":950,"▁äiti":951,"▁aam":952,"▁ilo":953,"isiin":954,"ip":955,"▁han":956,"▁oll":957,"▁tullut":958,"▁vall":959,"ise":960,"▁jät":961,"▁lei":962,"kkiä":963,"▁op":964,"▁tunn":965,"vat\n":966,"▁kaupun":967,"ust":968,"▁kohta":969,"sän":970,"lla\n":971,"▁olevan":972,"▁lähte":973,"▁väl":974,"▁...":975,"on\n":976,"▁lis":977,"its":978,"▁lähti":979,"▁ilona":980,"lle\n":981,"llisesti":982,"▁koskaan":983,"llaan":984,"vat,":985,"eita":986,"ati":987,"▁ny":988,"▁tapah":989,"▁ehkä":990,"esti":991,"mpi":992,"▁keh":993,"lle.\n":994,"yttää":995,"▁meidän":996,"▁tuntui":997,"västi":998,"▁luon":999,"oja":1000,"▁toinen":1001,"▁vastaan":1002,"▁pur":1003,"▁ruu":1004,"▁in":1005,"▁oma":1006,"▁ympäri":1007,"▁pah":1008,"▁kansa":1009,"eri":1010,"▁rahn":1011,"asto:":1012,"▁rahnasto:":1013,"uttaa":1014,"esty":1015,"▁voit":1016,"pu":1017,"▁muista":1018,"var":1019,"een.\n":1020,"a,\n":1021,"▁mun":1022,"mieh":1023,"ukku":1024,"ani":1025,"▁tunsi":1026,"▁ei\n":1027,"▁ikään":1028,"▁kal":1029,"▁kuin\n":1030,"▁teki":1031,"▁kuului":1032,"kasi":1033,"mia":1034,"▁yhd":1035,"mmin":1036,"▁tätä":1037,"utu":1038,"▁teidän":1039,"▁kon":1040,"▁vil":1041,"▁kysyi":1042,"▁päivä":1043,"kin.":1044,"▁jumal":1045,"rkki":1046,"▁jal":1047,"ehti":1048,"▁päästä":1049,"iseksi":1050,"▁tahd":1051,"▁kaiken":1052,"llään":1053,"ito":1054,"ppu":1055,"kei":1056,"lli":1057,"päiv":1058,"▁heitä":1059,"▁koti":1060,"llista":1061,"▁tuh":1062,"▁ystä":1063,"▁kiin":1064,"▁nämä":1065,"emmän":1066,"toman":1067,"tynyt":1068,"▁antti":1069,"▁katse":1070,"▁anna":1071,"ut,":1072,"kaan,":1073,"▁samalla":1074,"neen":1075,"▁nous":1076,"▁uud":1077,"atta":1078,"bä":1079,"▁vastasi":1080,"▁kans":1081,"▁talo":1082,"▁toisen":1083,"itta":1084,"▁mel":1085,"▁tunte":1086,"emmin":1087,"äsi":1088,"änsä":1089,"veli":1090,"▁tarv":1091,"isiä":1092,"puol":1093,"▁tyttö":1094,"iseen":1095,"▁puhu":1096,"▁av":1097,"▁näki":1098,"▁esi":1099,"▁ent":1100,"osi":1101,"ystä":1102,"▁kesk":1103,"▁pik":1104,"▁näytti":1105,"▁tuon":1106,"ös":1107,"▁nii":1108,"o,":1109,"elleen":1110,"▁eikö":1111,"▁rin":1112,"▁ir":1113,"kein":1114,"▁metsä":1115,"▁tut":1116,"▁tietä":1117,"alla":1118,"▁kai":1119,"▁niiden":1120,"rä":1121,"ity":1122,"osti":1123,"▁käd":1124,"▁herran":1125,"▁tahto":1126,"ksi.":1127,"▁uu":1128,"sa\n":1129,"▁sal":1130,"▁rakka":1131,"taan,":1132,"isit":1133,"▁tyy":1134,"uden":1135,"vaan":1136,"▁mutta\n":1137,"ar":1138,"ij":1139,"sa.":1140,"▁poh":1141,"▁että\n":1142,"▁valta":1143,"▁voinut":1144,"▁asti":1145,"al":1146,"▁hänellä":1147,"inen\n":1148,"kkaa":1149,"▁josta":1150,"▁julu":1151,"via":1152,"▁laus":1153,"▁huone":1154,"▁kuka":1155,"atti":1156,"▁anta":1157,"ittää":1158,"▁mahd":1159,"maan.":1160,"jäbä":1161,"▁u":1162,"▁siitä,":1163,"▁totisesti":1164,"i.":1165,"▁puu":1166,"et\n":1167,"▁ihmis":1168,"ähti":1169,"uoli":1170,"ast":1171,"tän":1172,"▁lapsi":1173,"▁julujäbä":1174,"▁olin":1175,"▁yksin":1176,"▁mur":1177,"▁pih":1178,"▁tänne":1179,"▁haa":1180,"ista\n":1181,"▁silmi":1182,"▁ras":1183,"▁eli":1184,"la:":1185,"nan":1186,"rsi":1187,"▁burs":1188,"▁burs\n":1189,"▁päivän":1190,"▁sala":1191,"▁aur":1192,"▁nousi":1193,"kuu":1194,"▁poik":1195,"▁miksi":1196,"▁heti":1197,"pin":1198,"▁sää":1199,"▁use":1200,"▁ois":1201,"uva":1202,"ini":1203,"▁muo":1204,"▁pöy":1205,"▁minkä":1206,"▁jäl":1207,"▁päät":1208,"▁pir":1209,"e,":1210,"taa\n":1211,"uv":1212,"yd":1213,"ään,":1214,"▁seuraa":1215,"▁oto":1216,"▁pil":1217,"ukka":1218,"▁hur":1219,"▁tan":1220,"or":1221,"isty":1222,"▁ikäänkuin":1223,"▁istu":1224,"▁se\n":1225,"ta.":1226,"keä":1227,"▁älä":1228,"ck":1229,"asta,":1230,"▁enemmän":1231,"▁istui":1232,"▁oikein":1233,"▁kaksi":1234,"▁vanha":1235,"val":1236,"ees":1237,"▁kukaan":1238,"pan":1239,"▁pitkä":1240,"▁jälkeen":1241,"ry":1242,"us,":1243,"▁koi":1244,"▁niin\n":1245,"▁kuten":1246,"mmi":1247,"nes":1248,"olas":1249,"▁ulos":1250,"▁edes":1251,"▁kauh":1252,"mies":1253,"▁määr":1254,"▁nikke":1255,"▁milloin":1256,"▁nikolas":1257,"kuun":1258,"oon":1259,"▁aut":1260,"kat":1261,"▁löy":1262,"▁aikaa":1263,"▁heille":1264,"jaan":1265,"rö":1266,"▁sinua":1267,"▁teke":1268,"kul":1269,"▁laine\n":1270,"▁x":1271,"▁joita":1272,"▁täytyy":1273,"itty":1274,"oilla":1275,"▁alas":1276,"di":1277,"▁rup":1278,"assa,":1279,"eks":1280,"isesta":1281,"▁kad":1282,"▁yksi":1283,"▁emän":1284,"raa":1285,"▁pieni":1286,"▁valti":1287,"ji":1288,"▁parkki":1289,"▁sti":1290,"ette":1291,"▁simo":1292,"▁hev":1293,"▁len":1294,"▁onko":1295,"▁jolla":1296,"jän":1297,"▁leh":1298,"ellut":1299,"ny":1300,"cker":1301,"▁mistä":1302,"maan.\n":1303,"▁meni":1304,"▁otti":1305,"lleet":1306,"▁tehdä":1307,"ihin":1308,"▁tyh":1309,"▁tästä":1310,"▁silm":1311,"▁jus":1312,"oista":1313,"ä.\n":1314,"ele":1315,"▁jotta":1316,"▁kell":1317,"▁mennä":1318,"o\n":1319,"tä\n":1320,"▁hänestä":1321,"onen":1322,"▁parkkila:":1323,"ppil":1324,"ulta":1325,"▁mik":1326,"▁antaa":1327,"▁kiinni":1328,"▁run":1329,"to\n":1330,"ter":1331,"llä,":1332,"▁oman":1333,"▁sticker":1334,"▁pyö":1335,"▁tähän":1336,"▁mukaan":1337,"▁siv":1338,"aan,":1339,"▁sanon":1340,"▁edessä":1341,"▁heng":1342,"rä\n":1343,"▁sinulle":1344,"ottaa":1345,"▁hetken":1346,"▁hiljaa":1347,"miel":1348,"▁silmät":1349,"▁sieltä":1350,"▁vaat":1351,"▁kiir":1352,"▁suomen":1353,"▁tulla":1354,"▁rä":1355,"sä,":1356,"mar":1357,"▁nim":1358,"isessa":1359,"uttu":1360,"▁lev":1361,"▁sticker\n":1362,"▁kah":1363,"▁kö":1364,"▁semm":1365,"▁pen":1366,"▁maailman":1367,"▁lii":1368,"▁jotain":1369,"▁tans":1370,"oitti":1371,"tävä":1372,"tää,":1373,"▁saada":1374,"mättö":1375,"ile":1376,"masta":1377,"minen":1378,"iva":1379,"▁lörs":1380,"itten":1381,"▁jatkoi":1382,"kkä":1383,"elle,":1384,"▁äid":1385,"istä,":1386,"▁vihd":1387,"▁heidät":1388,"ukan":1389,"ukset":1390,"▁huol":1391,"her":1392,"▁tö":1393,"mman":1394,"▁pime":1395,"▁lärä\n":1396,"▁sydäm":1397,"▁toiv":1398,"issa,":1399,"▁suh":1400,"▁tiedä":1401,"▁eläm":1402,"▁sun":1403,"eti":1404,"st":1405,"▁pian":1406,"▁takaisin":1407,"telee":1408,"▁vihdoin":1409,"din":1410,"aa\n":1411,"maan\n":1412,"▁voima":1413,"at,":1414,"▁ilman":1415,"eensa":1416,"▁taa":1417,"▁nuori":1418,"▁mol":1419,"▁eteen":1420,"▁kunni":1421,"▁huom":1422,"uja":1423,"▁sor":1424,"lin":1425,"llen":1426,"▁samassa":1427,"▁muuten":1428,"ua,":1429,"▁silmä":1430,"keli":1431,"raan":1432,"▁vaih":1433,"▁iha":1434,"▁siksi":1435,"▁saman":1436,"▁aj":1437,"▁yhte":1438,"▁on,":1439,"▁tehnyt":1440,"▁pekka":1441,"▁vapa":1442,"▁sydän":1443,"▁tuolla":1444,"▁tarko":1445,"▁otta":1446,"▁se,":1447,"laiset":1448,"ota":1449,"▁tart":1450,"dan":1451,"▁vie":1452,"▁talon":1453,"▁ukko":1454,"kana":1455,"▁puoli":1456,"▁ylös":1457,"ettö":1458,"▁huud":1459,"tä.":1460,"▁puna":1461,"▁olem":1462,"▁pari":1463,"kona":1464,"▁hor":1465,"haa":1466,"▁taiv":1467,"▁hetk":1468,"▁ru":1469,"▁ainoastaan":1470,"▁my":1471,"htaa":1472,"kal":1473,"▁olette":1474,"▁minut":1475,"ksi.\n":1476,"▁minulla":1477,"▁kulki":1478,"u,":1479,"ella,":1480,"vuo":1481,"kk":1482,"▁äär":1483,"kse":1484,"▁laa":1485,"▁jout":1486,"▁ajan":1487,"▁sam":1488,"▁kier":1489,"▁kohti":1490,"▁johon":1491,"▁raa":1492,"▁taistel":1493,"▁kuts":1494,"si,":1495,"▁silmän":1496,"mer":1497,"non":1498,"▁ala":1499,"▁ikä":1500,"▁vär":1501,"mme,":1502,"▁teille":1503,"▁ulko":1504,"▁päivänä":1505,"▁kaupung":1506,"ata":1507,"rat":1508,"▁mil":1509,"▁äs":1510,"usti":1511,"lla.":1512,"▁nähdä":1513,"pui":1514,"▁sama":1515,"tyy":1516,"▁puhui":1517,"ois":1518,"vet":1519,"▁kävi":1520,"▁seisoi":1521,"toa":1522,"isen\n":1523,"oihin":1524,"▁paik":1525,"▁antoi":1526,"▁syy":1527,"▁vittu":1528,"▁jolloin":1529,"ren":1530,"▁lopp":1531,"mpa":1532,"▁tover":1533,"▁sen\n":1534,"rki":1535,"▁työn":1536,"uli":1537,"▁kiih":1538,"päin":1539,"▁pro":1540,"▁pikku":1541,"▁ensin":1542,"▁hyv":1543,"▁olemme":1544,"▁hyvän":1545,"kin.\n":1546,"▁pysä":1547,"▁kun\n":1548,"▁tied":1549,"kar":1550,"hi":1551,"▁tällä":1552,"▁koul":1553,"ne,":1554,"ellis":1555,"isena":1556,"▁pala":1557,"tte":1558,"▁tien":1559,"▁kuuli":1560,"▁ette":1561,"▁hym":1562,"▁katsoi":1563,"▁uusi":1564,"elin":1565,"kseni":1566,"viä":1567,"▁pitk":1568,"taan.":1569,"▁äit":1570,"oni":1571,"▁kuulu":1572,"llan":1573,"▁kertaa":1574,"▁elämä":1575,"mmat":1576,"sa.\n":1577,"▁au":1578,"▁hyvää":1579,"▁jotakin":1580,"iä":1581,"▁vähä":1582,"emään":1583,"▁kuun":1584,"issaan":1585,"▁uno":1586,"▁raken":1587,"▁oon":1588,"▁täytyi":1589,"▁aset":1590,"kit":1591,"▁kansan":1592,"▁ah":1593,"▁jy":1594,"ula":1595,"ää,":1596,"ilta":1597,"▁anni":1598,"▁ilta":1599,"▁lappa":1600,"▁pas":1601,"▁piti":1602,"▁kirjoit":1603,"▁isäntä":1604,"eta":1605,"issään":1606,"▁arm":1607,"nyt,":1608,"laisten":1609,"hto":1610,"len":1611,"▁tekee":1612,"▁nel":1613,"▁ikkun":1614,"▁moos":1615,"▁toista":1616,"köön":1617,"as,":1618,"▁ottaa":1619,"iska":1620,"▁til":1621,"▁kil":1622,"▁hall":1623,"öt":1624,"▁paika":1625,"▁ilma":1626,"▁hir":1627,"▁kr":1628,"isivat":1629,"ottu":1630,"▁isra":1631,"kasta":1632,"▁tahton":1633,"▁kesä":1634,"▁nukku":1635,"insä":1636,"▁marc":1637,"ahti":1638,"▁huusi":1639,"so":1640,"lkää":1641,"▁virk":1642,"▁valko":1643,"▁kuuluu":1644,"miin":1645,"▁jälleen":1646,"▁ihmiset":1647,"▁martti":1648,"▁kauan":1649,"yks":1650,"asi,":1651,"▁näkö":1652,"i.\n":1653,"ja\n":1654,"▁jussi":1655,"▁kohd":1656,"▁saar":1657,"estään":1658,"ber":1659,"▁viho":1660,"▁joskus":1661,"▁alkaa":1662,"yyd":1663,"vien":1664,"essa,":1665,"▁maahan":1666,"▁matka":1667,"▁miehen":1668,"▁kolme":1669,"▁hyö":1670,"teeksi":1671,"▁äkkiä":1672,"▁rat":1673,"▁eihän":1674,"kkaan":1675,"▁sair":1676,"▁päin":1677,"▁lin":1678,"llä\n":1679,"▁sille":1680,"uneet":1681,"▁asia":1682,"▁ali":1683,"▁lait":1684,"isi,":1685,"▁toiset":1686,"▁kotiin":1687,"unta":1688,"mal":1689,"▁itsensä":1690,"▁ap":1691,"▁hevos":1692,"eiden":1693,"▁melkein":1694,"▁nur":1695,"ea":1696,"▁kann":1697,"▁musta":1698,"▁suoma":1699,"eena":1700,"kais":1701,"eitä":1702,"ksan":1703,"mitu":1704,"▁hien":1705,"▁saattoi":1706,"isi\n":1707,"▁suuren":1708,"isy":1709,"▁lyö":1710,"ksy":1711,"ga":1712,"▁poli":1713,"ysti":1714,"▁velj":1715,"▁jän":1716,"▁pun":1717,"▁kautta":1718,"tuivat":1719,"▁järj":1720,"▁omitu":1721,"▁kaarlo":1722,"▁tälla":1723,"en.":1724,"▁lyh":1725,"▁pappi":1726,"▁miehet":1727,"▁mahdo":1728,"▁kunnes":1729,"▁tuota":1730,"▁läpi":1731,"pit":1732,"▁toisi":1733,"▁ov":1734,"▁niistä":1735,"▁ryh":1736,"▁suku":1737,"▁todella":1738,"▁kuole":1739,"▁kärsi":1740,"▁monta":1741,"olla":1742,"▁.":1743,"▁pos":1744,"▁sota":1745,"isenä":1746,"▁aav":1747,"▁joka\n":1748,"kaan.":1749,"ään\n":1750,"▁tos":1751,"▁puut":1752,"▁mark":1753,"▁selit":1754,"unsa":1755,"▁lan":1756,"nut,":1757,"▁pysty":1758,"mys":1759,"▁seli":1760,"▁kauni":1761,"emp":1762,"kut":1763,"▁mari":1764,"uni":1765,"eman":1766,"▁usein":1767,"▁kyn":1768,"ellä,":1769,"▁ihme":1770,"▁koet":1771,"▁lammi":1772,"▁palveli":1773,"▁odotta":1774,"▁köyh":1775,"▁lammi:":1776,"▁mihin":1777,"▁henki":1778,"tomasti":1779,"▁paa":1780,"▁joo":1781,"▁kaks":1782,"äänsä":1783,"▁menee":1784,"emmat":1785,"▁jouko":1786,"kaan\n":1787,"aan.":1788,"▁jonkun":1789,"attu":1790,"▁tap":1791,"ista.":1792,"▁uskon":1793,"▁yhdessä":1794,"ellinen":1795,"pal":1796,"▁muist":1797,"▁nähnyt":1798,"!...":1799,"▁noin":1800,"▁x\n":1801,"▁ruk":1802,"va,":1803,"ek":1804,"▁nope":1805,"▁hän,":1806,"▁kokon":1807,"vana":1808,"▁hämä":1809,"▁vaimo":1810,"▁kymmen":1811,"ehd":1812,"mien":1813,"▁sentään":1814,"▁lappalainen":1815,"▁mene":1816,"▁varten":1817,"▁toim":1818,"▁liian":1819,"▁pysäh":1820,"▁naa":1821,"hä":1822,"▁tarj":1823,"▁vuor":1824,"▁laula":1825,"vas":1826,"tyä":1827,"▁anteeksi":1828,"u\n":1829,"▁olleet":1830,"laisen":1831,"▁pho":1832,"▁enkä":1833,"usta,":1834,"▁kasvoi":1835,"▁väs":1836,"▁hell":1837,"esta,":1838,"▁kel":1839,"▁toivo":1840,"ynnä":1841,"▁yön":1842,"tto":1843,"iksi,":1844,"▁joiden":1845,"emmä":1846,"▁horhe":1847,"▁photo\n":1848,"ch":1849,"isuus":1850,"▁pitkin":1851,"▁ensimmä":1852,"▁muka":1853,"▁ajatteli":1854,"itto":1855,"▁varm":1856,"▁rupesi":1857,"sivät":1858,"▁ennenkuin":1859,"▁helvi":1860,"▁väär":1861,"onta":1862,"▁vah":1863,"istaa":1864,"▁or":1865,"▁katseli":1866,"▁kock":1867,"mättä":1868,"▁hiukan":1869,"▁ö":1870,"▁joten":1871,"aa.":1872,"ja.":1873,"▁kock:":1874,"▁jään":1875,"▁sitä\n":1876,"▁tietää":1877,"rven":1878,"▁haus":1879,"▁rii":1880,"ilä":1881,"▁luul":1882,"misen":1883,"iste":1884,"▁keskus":1885,"▁ajattel":1886,"▁vasten":1887,"en.\n":1888,"▁tee":1889,"atto":1890,"iki":1891,"▁ollut\n":1892,"an.\n":1893,"▁lappalainen:":1894,"▁pako":1895,"ojen":1896,"▁laske":1897,"gi":1898,"▁jees":1899,"estaan":1900,"▁emme":1901,"itte":1902,"▁merk":1903,"▁horhe:":1904,"vat.":1905,"ria":1906,"▁niinku":1907,"▁tänä":1908,"▁nyt\n":1909,"▁teitä":1910,"yyden":1911,"▁sanoo":1912,"ron":1913,"▁pääse":1914,"▁syrj":1915,"issa\n":1916,"▁perus":1917,"▁pysy":1918,"sen":1919,"▁tähden":1920,"▁korkea":1921,"inko":1922,"▁peh":1923,"▁joukko":1924,"kui":1925,"▁näke":1926,"▁vuotta":1927,"ut\n":1928,"▁ry":1929,"▁ehd":1930,"▁tuij":1931,"ettava":1932,"▁kätensä":1933,"▁aja":1934,"▁huomaa":1935,"▁mus":1936,"▁vet":1937,"▁johd":1938,"▁ei,":1939,"essä,":1940,"▁mielen":1941,"▁yhtäkkiä":1942,"isella":1943,"kaa,":1944,"ellään":1945,"▁tuossa":1946,"▁seura":1947,"▁siir":1948,"▁askel":1949,"astu":1950,"ättä":1951,"me\n":1952,"▁terv":1953,"ksi\n":1954,"▁tunne":1955,"▁vitun":1956,"▁varmaan":1957,"iss":1958,"▁inn":1959,"▁ota":1960,"issa.":1961,"▁tiesi":1962,"aan\n":1963,"▁ihminen":1964,"▁kirkko":1965,"voi":1966,"▁älkää":1967,"si\n":1968,"us\n":1969,"ine":1970,":n":1971,"▁erään":1972,"▁lausui":1973,"kia":1974,"kymmen":1975,"▁onks":1976,"matto":1977,"▁kaarle":1978,"▁rauha":1979,"ly":1980,"assa.":1981,"tal":1982,"▁latti":1983,"▁suunn":1984,"▁ääni":1985,"itsem":1986,"t\n":1987,"usa":1988,"▁eri":1989,"▁rukoi":1990,"atte":1991,"kaa\n":1992,"▁pappil":1993,"vy":1994,"tana":1995,"▁palvel":1996,"▁viera":1997,"go":1998,"asin":1999,"▁näyttä":2000,"inaan":2001,"▁onnet":2002,"▁taj":2003,"▁jäi":2004,"▁voisi":2005,"▁huomasi":2006,"▁mö":2007,"än\n":2008,"▁pojan":2009,"▁nyky":2010,"▁jo\n":2011,"▁toisten":2012,"▁käynyt":2013,"▁täynnä":2014,"▁pojat":2015,"istä\n":2016,"onn":2017,"▁aikaan":2018,"uksessa":2019,"mpp":2020,"▁man":2021,"▁lie":2022,"at\n":2023,"▁lien":2024,"▁the":2025,"▁antanut":2026,"▁tietysti":2027,"met":2028,"▁kahden":2029,"▁:\n":2030,"▁minusta":2031,"vät\n":2032,"▁minä\n":2033,"emma":2034,"tus":2035,"▁autta":2036,"isille":2037,"▁mal":2038,"▁sitte":2039,"oiden":2040,"▁tav":2041,"iselle":2042,"▁sie":2043,"▁tahtoi":2044,"▁vanhan":2045,"▁kirja":2046,"isuud":2047,"iltä":2048,"▁piis":2049,"▁yhteen":2050,"▁ihmet":2051,"▁myöskin":2052,"▁koetti":2053,"vät,":2054,"▁ihmisen":2055,"▁lein":2056,"▁mietti":2057,"▁viha":2058,"▁syl":2059,"taan.\n":2060,"do":2061,"▁sitä,":2062,"▁toimit":2063,"illä":2064,"▁huut":2065,"lla.\n":2066,"▁pes":2067,"▁kyy":2068,"▁parha":2069,"isar":2070,"▁herra,":2071,"mässä":2072,"ikan":2073,"ästy":2074,"▁kesken":2075,"▁semmo":2076,"▁huoma":2077,"▁ruot":2078,"▁aiko":2079,"▁muita":2080,"▁oven":2081,"▁muisti":2082,"peä":2083,"▁varj":2084,"oittaa":2085,"▁kuva":2086,"ri,":2087,"estä,":2088,"perä":2089,"▁yr":2090,"▁lähet":2091,"▁suut":2092,"onen:":2093,"isteli":2094,"▁vis":2095,"▁tahtonut":2096,"ba":2097,"▁oot":2098,"vansa":2099,"▁ystävä":2100,"▁hurme\n":2101,"▁linn":2102,"▁lun":2103,"▁huoli":2104,"lleen,":2105,"ki,":2106,"las":2107,"▁viis":2108,"▁tupa":2109,"▁roh":2110,"op":2111,"▁piir":2112,"▁kerto":2113,"▁terve":2114,"▁olkoon":2115,"▁rouva":2116,"ja.\n":2117,"assa\n":2118,"▁leinonen:":2119,"▁kaunis":2120,"ien":2121,"ään.":2122,"sani":2123,"▁sydämen":2124,"▁ina":2125,"ineen":2126,"▁miks":2127,"än,":2128,"▁sen,":2129,"päivä":2130,"isestä":2131,"▁onne":2132,"▁paran":2133,"tia":2134,"▁muod":2135,"ket":2136,"▁kuis":2137,"▁pääll":2138,"▁taivaan":2139,"ellisesti":2140,"▁oliko":2141,"▁tuntuu":2142,"▁riem":2143,"▁esim":2144,"jel":2145,"lö":2146,"▁emäntä":2147,"poika":2148,"▁taiva":2149,"▁juhla":2150,"insa":2151,"▁soi":2152,"ki\n":2153,"un\n":2154,"otto":2155,"kku":2156,"eili":2157,"▁kalli":2158,"▁kuullut":2159,"▁meillä":2160,"vasta":2161,"ikon":2162,"▁päässä":2163,"mu":2164,"▁kot":2165,"▁olisi\n":2166,"▁opetta":2167,"uttua":2168,"mään,":2169,"eseen":2170,"van\n":2171,"▁kasvo":2172,"▁korke":2173,"▁suk":2174,"kien":2175,"▁näyttää":2176,"sä\n":2177,"▁täyd":2178,"ähän":2179,"tani":2180,"▁asian":2181,"▁samoin":2182,"huo":2183,"▁kumar":2184,"elle.":2185,"▁myöh":2186,"▁vaka":2187,"▁tuskin":2188,"▁aurinko":2189,"on.":2190,"▁puhd":2191,"alle":2192,"▁mit":2193,"▁kertoi":2194,"▁sellainen":2195,"▁mikään":2196,"▁häneen":2197,"vat.\n":2198,"ee\n":2199,"▁tuska":2200,"enn":2201,"annut":2202,"▁tuomi":2203,"▁ep":2204,"▁kovin":2205,"▁päähän":2206,"kassa":2207,"▁varsin":2208,"▁seiso":2209,"llo":2210,"▁astui":2211,"eni,":2212,"▁toimi":2213,"▁tyyty":2214,"▁tuleva":2215,"lliset":2216,"▁vapaa":2217,"▁täh":2218,"tähden":2219,"▁lää":2220,"ess":2221,"eil":2222,"▁tarvitse":2223,"▁lah":2224,"▁olivat\n":2225,"nö":2226,"äni":2227,"▁ihmisten":2228,"▁kumma":2229,"tansa":2230,"▁sanoin":2231,"▁poi":2232,"▁joh":2233,"▁kiv":2234,"▁lopulta":2235,"innut":2236,"kset":2237,"▁kus":2238,"▁out":2239,"laista":2240,"kään,":2241,"▁kirkon":2242,"▁pyhä":2243,"uri":2244,"▁oleva":2245,"▁suru":2246,"syt":2247,"▁sav":2248,"inen.":2249,"tuneet":2250,"mas":2251,"uksesta":2252,"▁sinut":2253,"ukon":2254,"▁alka":2255,"▁vap":2256,"kseen,":2257,"▁sop":2258,"uksensa":2259,"empaa":2260,"▁osaa":2261,"▁hämm":2262,"▁äsken":2263,"teet":2264,"▁käyt":2265,"▁kaikkien":2266,"▁kiit":2267,"ella\n":2268,"▁valo":2269,"tävän":2270,"▁osan":2271,"▁puhua":2272,"aa.\n":2273,"▁vaku":2274,"▁yle":2275,"▁omaa":2276,"▁väki":2277,"uksia":2278,"▁valtion":2279,"▁marcus":2280,"▁molemmat":2281,"▁tarkoit":2282,"▁son":2283,"▁tor":2284,"▁äänellä":2285,"▁yksinä":2286,"▁lisä":2287,"▁tosi":2288,"▁heistä":2289,"istus":2290,"aan.\n":2291,"kunnan":2292,"▁mies,":2293,"tää\n":2294,"▁hirv":2295,"neet,":2296,"▁illa":2297,"▁odot":2298,"▁tila":2299,"gen":2300,"tava":2301,"▁saav":2302,"tään,":2303,"▁ymmärr":2304,"nin":2305,"▁tark":2306,"▁kiinn":2307,"▁jokainen":2308,"▁hymyi":2309,"▁harj":2310,"telem":2311,"enä":2312,"laisia":2313,"▁maist":2314,"▁vois":2315,"▁äidin":2316,"est":2317,"▁tänään":2318,"röm":2319,"rik":2320,"▁tyttä":2321,"emen":2322,"▁suom":2323,"ed":2324,"▁ojen":2325,"▁kova":2326,"ansa,":2327,"▁uuden":2328,"▁paper":2329,"llä.":2330,"▁myön":2331,"mätön":2332,"▁ren":2333,"▁main":2334,"▁käv":2335,"▁meille":2336,"jät":2337,"lu":2338,"▁opp":2339,"▁etsi":2340,"ella.":2341,"▁kuule":2342,"▁tiedät":2343,"▁rien":2344,"kaup":2345,"▁meitä":2346,"▁kiel":2347,"▁suoraan":2348,"▁tasa":2349,"▁näitä":2350,"▁vuosi":2351,"▁saksa":2352,"▁yhden":2353,"vään":2354,"▁ava":2355,"▁sanoa":2356,"▁äänettö":2357,"ill":2358,"▁virkkoi":2359,"del":2360,"▁pin":2361,"▁ainakin":2362,"ttä":2363,"ann":2364,"▁takaa":2365,"▁lähe":2366,"▁ne,":2367,"▁huomen":2368,"▁halu":2369,"vassa":2370,"mme\n":2371,"▁vielä\n":2372,"issä,":2373,"hen":2374,"kiin":2375,"▁samaa":2376,"▁ilmesty":2377,"▁oli,":2378,"▁kyyn":2379,"▁näk":2380,"▁saakka":2381,"▁erä":2382,"▁vuoden":2383,"▁pitänyt":2384,"etaan":2385,"utua":2386,"▁kulta":2387,"kkan":2388,"▁jaa":2389,"▁ahd":2390,"▁kysymy":2391,"ström":2392,"▁joud":2393,"▁eivätkä":2394,"ttaa":2395,"taasti":2396,"▁käydä":2397,"▁käänty":2398,"▁perä":2399,"▁ruoka":2400,"▁kokonaan":2401,"▁uut":2402,"▁syt":2403,"hu":2404,"▁katso,":2405,"▁tyyn":2406,"det":2407,"yp":2408,"yksi":2409,"▁sanat":2410,"maton":2411,"ret":2412,"▁vali":2413,"ma,":2414,"▁katker":2415,"kunta":2416,"sit":2417,"kos":2418,"▁herät":2419,"kkää":2420,"utus":2421,"liin":2422,"▁totta":2423,"uin":2424,"▁menn":2425,"▁fa":2426,"▁rakasta":2427,"▁ollen":2428,"▁opet":2429,"▁rinna":2430,"ep":2431,"▁put":2432,"▁vesi":2433,"▁mennyt":2434,"▁perin":2435,"mistä":2436,"▁kunin":2437,"yyn":2438,"ot,":2439,"mattoman":2440,"▁hoi":2441,"▁saisi":2442,"▁liikku":2443,"▁silmänsä":2444,"▁kestä":2445,"▁sisar":2446,"isuutta":2447,"▁vetä":2448,"▁esiin":2449,"▁totisesti,":2450,"d\n":2451,"▁parempi":2452,"▁pet":2453,"▁valit":2454,"▁kaiv":2455,"asta\n":2456,"▁päivää":2457,"▁loi":2458,"▁rinn":2459,"▁jätti":2460,"▁keskellä":2461,"▁mul":2462,"▁kaat":2463,"▁kuning":2464,"essa.":2465,"▁iso":2466,"sy":2467,"t,":2468,"▁maksa":2469,"▁kääntyi":2470,"▁vastaan,":2471,"▁ajatus":2472,"▁paha":2473,"uttanut":2474,"▁olisin":2475,"▁lapsen":2476,"▁hull":2477,"ääri":2478,"▁tanssi":2479,"en:":2480,"▁ab":2481,"▁palasi":2482,"▁lähten":2483,"▁tiedän":2484,"▁myöten":2485,"▁sisään":2486,"▁no,":2487,"▁kaikkia":2488,"▁vuote":2489,"▁luke":2490,"▁prof":2491,"ost":2492,"▁arvo":2493,"ittänyt":2494,"nän":2495,"▁kona":2496,"isia,":2497,"oton":2498,"elle.\n":2499,"▁rann":2500,"▁liikke":2501,"van,":2502,"taan\n":2503,"▁mitään,":2504,"▁olikin":2505,"äärin":2506,"▁kuitenkaan":2507,"▁virka":2508,"▁ur":2509,"assa.\n":2510,"▁rakenn":2511,"kis":2512,"kkin":2513,"utunut":2514,"rjan":2515,"laa":2516,"▁om":2517,"▁yrit":2518,"isessä":2519,"▁metsän":2520,"lleen.":2521,"▁pääsi":2522,"▁huon":2523,"iksi.":2524,"▁lat":2525,"ista.\n":2526,"empää":2527,"viin":2528,"▁kanta":2529,"▁ranna":2530,"nsä":2531,"iky":2532,"essa\n":2533,"▁hämär":2534,"▁joul":2535,"▁tas":2536,"▁pyrki":2537,"▁väsy":2538,"▁kumm":2539,"▁seitsem":2540,"taa.":2541,"▁heillä":2542,"▁eräs":2543,"istö":2544,"usta.":2545,"▁synty":2546,"▁pat":2547,"▁onhan":2548,"▁kävel":2549,"▁hätä":2550,"ossa,":2551,"▁päässyt":2552,"▁kih":2553,"llin":2554,"ina,":2555,"ytyi":2556,"▁ruumi":2557,"▁nyt,":2558,"▁ainoa":2559,"ut.":2560,"▁häneltä":2561,"▁vaiv":2562,"▁olisivat":2563,"▁nopeasti":2564,"▁kona:":2565,"▁saap":2566,"gin":2567,"▁jona":2568,"▁oikea":2569,"▁alla":2570,"▁aih":2571,"ellisen":2572,"▁puhe":2573,"▁soti":2574,"yksen":2575,"isivät":2576,"▁auring":2577,"asta.":2578,"▁varmasti":2579,"▁kuvit":2580,"▁syvä":2581,"▁kurk":2582,"▁tulisi":2583,"▁mart":2584,"▁seurasi":2585,"▁kanssa,":2586,"▁lähteä":2587,"▁heh":2588,"▁loppu":2589,"▁elää":2590,"rien":2591,"▁sentähden":2592,"▁käsky":2593,"▁pö":2594,"▁kieltä":2595,"▁muisto":2596,"ström:":2597,"oivat":2598,"▁valmis":2599,"▁puhunut":2600,"▁huudahti":2601,"▁selitti":2602,"ta.\n":2603,"kaan.\n":2604,"▁he\n":2605,"▁tulen":2606,"▁tarkas":2607,"▁näkyi":2608,"▁jänn":2609,"▁kyynel":2610,"emme":2611,"▁joel":2612,"▁selvi":2613,"kerta":2614,"▁pitäisi":2615,"▁iisa":2616,"määr":2617,"▁lem":2618,"▁kaul":2619,"▁sanan":2620,"▁ilme":2621,"iin":2622,"it,":2623,"▁vain\n":2624,"▁tunten":2625,"▁kaikki,":2626,"▁suun":2627,"▁ruus":2628,"▁viip":2629,"▁piet":2630,"käs":2631,"▁les":2632,"par":2633,"kunn":2634,"ksu":2635,"▁kuluttua":2636,"▁uskal":2637,"▁pani":2638,"▁ensimä":2639,"▁tarttui":2640,"tt":2641,"▁johta":2642,"▁itsell":2643,"tär":2644,"essän":2645,"▁raiv":2646,"▁kulj":2647,"jä,":2648,"▁lämp":2649,"▁ell":2650,"mari":2651,"▁miet":2652,"▁luosta":2653,"▁venä":2654,"▁näet":2655,"▁ne\n":2656,"▁luku":2657,"kaisi":2658,"▁johan":2659,"uivat":2660,"▁israeli":2661,"▁harv":2662,"▁tapahtunut":2663,"▁aliisa":2664,"▁pietilä":2665,"▁st":2666,"▁kahd":2667,"▁ylä":2668,"▁toki":2669,"▁ase":2670,"lta.":2671,"▁pietilä:":2672,"▁päällä":2673,"▁tytön":2674,"▁mooses":2675,"isko":2676,"valla":2677,"ura":2678,"▁mukan":2679,"▁pienen":2680,"▁kiire":2681,"▁pud":2682,"itellen":2683,"▁menet":2684,"▁ulkona":2685,"▁amm":2686,"jal":2687,"▁samm":2688,"▁näkee":2689,"telu":2690,"tune":2691,"oissa":2692,"▁enn":2693,"▁minne":2694,"▁puolen":2695,"keen":2696,"istaan":2697,"▁astu":2698,"▁naura":2699,"län":2700,"▁pelkää":2701,"▁juur":2702,"as\n":2703,"it\n":2704,"▁huoman":2705,"▁ranta":2706,"▁alkoivat":2707,"toni":2708,"▁up":2709,"▁hänessä":2710,"▁hava":2711,"un,":2712,"▁nimen":2713,"▁hypp":2714,"▁kohden":2715,"▁tär":2716,"ua.":2717,"▁saapui":2718,"▁lund":2719,"▁sein":2720,"ee,":2721,"▁vastaa":2722,"▁sellaista":2723,"▁pyör":2724,"haan":2725,"▁olis":2726,"itel":2727,"▁kap":2728,"▁käyn":2729,"▁kasvot":2730,"▁pitkän":2731,"▁paitsi":2732,"▁katsa":2733,"imen":2734,"▁sitten\n":2735,"telivat":2736,"onnut":2737,"▁nimi":2738,"ähd":2739,"▁aikana":2740,"daan":2741,"▁näy":2742,"▁hirvi":2743,"täen":2744,"utuu":2745,"ää\n":2746,"▁täy":2747,"▁katin":2748,"▁kerr":2749,"▁leikki":2750,"▁tunnus":2751,"▁lähtee":2752,"hin,":2753,"▁joos":2754,"▁näiden":2755,"▁neuv":2756,"inan":2757,"▁miestä":2758,"▁tuntu":2759,"▁puhut":2760,"▁tapahtu":2761,"▁kello":2762,"pur":2763,"ttu":2764,"yt,":2765,"▁onnen":2766,"▁sattui":2767,"bot":2768,"▁nuk":2769,"▁hymy":2770,"▁lupa":2771,"▁harry":2772,"▁lisäsi":2773,"mus":2774,"▁joilla":2775,"ina\n":2776,"▁käyttä":2777,"▁itselleen":2778,"▁tapp":2779,"▁kuiv":2780,"▁huomi":2781,"▁ylio":2782,"▁heittä":2783,"▁valmi":2784,"▁suin":2785,"▁äl":2786,"▁turva":2787,"htanut":2788,"▁mas":2789,"▁jonne":2790,"▁ryö":2791,"iset,":2792,"▁kulke":2793,"mään.":2794,"▁tuuli":2795,"▁ut":2796,"isuuden":2797,"▁vei":2798,"▁reh":2799,"sä.":2800,"▁paljo":2801,"▁varo":2802,"▁häv":2803,"▁lundström:":2804,"toon":2805,"▁kirkas":2806,"▁epäil":2807,"▁kaikki\n":2808,"▁armo":2809,"▁maailma":2810,"▁lapset":2811,"▁jaksa":2812,"elle\n":2813,"▁lohd":2814,"▁mieleen":2815,"kesi":2816,"ko,":2817,"▁alku":2818,"▁jut":2819,"▁tull":2820,"▁terä":2821,"▁tutki":2822,"uku":2823,"kirj":2824,"▁eg":2825,"tuna":2826,"▁sillä\n":2827,"▁teidät":2828,"kke":2829,"▁joko":2830,"ksin":2831,"▁rovasti":2832,"▁raska":2833,"▁pirtti":2834,"oli":2835,"▁luj":2836,"hat":2837,"▁etten":2838,"▁naim":2839,"▁sanonut":2840,"▁miltei":2841,"si.\n":2842,"▁lau":2843,"▁ties":2844,"▁oikeastaan":2845,"uutensa":2846,"▁tavalla":2847,"oille":2848,"▁sinulla":2849,"▁kohosi":2850,"pea":2851,"▁soit":2852,"uuksi":2853,"▁risti":2854,"osta,":2855,"▁uutta":2856,"▁kur":2857,"▁pidät":2858,"▁välit":2859,"mme.":2860,"▁siten":2861,"ittäin":2862,"▁veli":2863,"▁päälle":2864,"▁lähetti":2865,"▁kuor":2866,"▁kirko":2867,"▁tek":2868,"▁puolesta":2869,"otu":2870,"uvo":2871,"us.":2872,"▁ens":2873,"▁pid":2874,"▁lähesty":2875,"▁vuoksi":2876,"eksi,":2877,"▁keske":2878,"▁itseään":2879,"llisi":2880,"elee":2881,"▁kukka":2882,"kseen.":2883,"▁ystävän":2884,"▁piha":2885,"ii":2886,"▁lyy":2887,"ero":2888,"▁laski":2889,"▁tosin":2890,"ff":2891,"▁paikka":2892,"▁näyt":2893,"▁syv":2894,"▁häntä\n":2895,"urska":2896,"▁inari":2897,"▁sta":2898,"▁pr":2899,"▁jopa":2900,"▁kokoon":2901,"▁kanssa.":2902,"▁veden":2903,"▁hö":2904,"▁vara":2905,"▁takan":2906,"isi.":2907,"▁millä":2908,"▁tarp":2909,"▁vast":2910,"▁lyhy":2911,"etään":2912,"mon":2913,"ena":2914,"▁aat":2915,"▁viet":2916,"ellä\n":2917,"essä.":2918,"▁verta":2919,"oma":2920,"▁rikka":2921,"▁heikko":2922,"▁jälj":2923,"▁joutui":2924,"▁kirkka":2925,"▁nuoruka":2926,"ulle,":2927,"▁kiito":2928,"▁ympär":2929,"▁hää":2930,"valta":2931,"▁sopi":2932,"issä\n":2933,"▁rik":2934,"▁uska":2935,"ekka":2936,"hy":2937,"ps":2938,"▁sän":2939,"▁kuk":2940,"▁haud":2941,"kään\n":2942,"▁luk":2943,"▁siin":2944,"▁siun":2945,"▁papp":2946,"▁puheli":2947,"▁leik":2948,"▁arveli":2949,"▁tahdo":2950,"onut":2951,"▁eriko":2952,"▁kein":2953,"era":2954,"vat:":2955,"ella.\n":2956,"▁syntyi":2957,"miehen":2958,"igo":2959,"mesta":2960,"olo":2961,"▁takana":2962,"▁ajatuks":2963,"▁sir":2964,"▁pii":2965,"▁säil":2966,"herra":2967,"ipi":2968,"mästi":2969,"nu":2970,"pol":2971,"inta":2972,"ittu":2973,"▁etkö":2974,"▁irja":2975,"isitte":2976,"▁sairas":2977,"▁täyttä":2978,"▁tohto":2979,"▁kaikesta":2980,"▁just":2981,"▁paina":2982,"vannut":2983,"▁tulivat":2984,"▁selv":2985,"yyttä":2986,"▁omista":2987,"▁pistä":2988,"inen.\n":2989,"ettävä":2990,"▁ilmoit":2991,"▁olihan":2992,"▁mielestä":2993,"▁kenen":2994,"▁salaperä":2995,"▁koiv":2996,"▁egyp":2997,"kkun":2998,"▁ranga":2999,"▁aikoin":3000,"▁ovi":3001,"▁ponn":3002,"▁viisa":3003,"▁altta":3004,"▁harha":3005,"pun":3006,"▁oud":3007,"raha":3008,"iksi.\n":3009,"▁hill":3010,"yttö":3011,"kiä":3012,"istään":3013,"▁luki":3014,"▁selvästi":3015,"▁rahigo":3016,"▁seitsemän":3017,"▁koo":3018,"ri\n":3019,"▁ole\n":3020,"▁ketään":3021,"▁esimer":3022,"uu,":3023,"▁kaikkea":3024,"▁lähtö":3025,"issa.\n":3026,"▁kaupunki":3027,"▁neljä":3028,"▁jäänyt":3029,"▁säh":3030,"ikkö":3031,"▁täys":3032,"▁neiti":3033,"ef":3034,"▁hui":3035,"sia":3036,"▁lähd":3037,"▁kuoleman":3038,"ikymmen":3039,"ju":3040,"▁alle":3041,"▁viin":3042,"tyivät":3043,"asta.\n":3044,"▁näl":3045,"▁kasvat":3046,"▁kiitos":3047,"eä":3048,"erin":3049,"laisi":3050,"▁poikki":3051,"kansa":3052,"▁uudelleen":3053,"tuaan":3054,"istuksen":3055,"▁tapahtui":3056,"▁auringon":3057,"▁amp":3058,"aal":3059,"▁lai":3060,"taa.\n":3061,"istä.":3062,"▁sinä,":3063,"▁iku":3064,"▁aamulla":3065,"ellaan":3066,"uudesta":3067,"▁pois,":3068,"▁vieras":3069,"unnunta":3070,"itys":3071,"▁vaati":3072,"▁tavat":3073,"▁tuosta":3074,"▁sittenkin":3075,"lleen.\n":3076,"▁helsin":3077,"▁maailmassa":3078,"▁ga":3079,"▁käsivar":3080,"▁innos":3081,"lj":3082,"mästä":3083,"rei":3084,"tä.\n":3085,"▁entä":3086,"▁palaa":3087,"▁huono":3088,"▁lasten":3089,"▁kuolem":3090,"▁aamu":3091,"▁ruko":3092,"▁korv":3093,"▁kuuka":3094,"istin":3095,"tuneen":3096,"▁vallan":3097,"▁jolle":3098,"▁vauh":3099,"▁viel":3100,"▁vähitellen":3101,"▁peit":3102,"telemaan":3103,"▁ottanut":3104,"pas":3105,"▁juli":3106,"▁ves":3107,"▁papin":3108,"luo":3109,"▁sät":3110,"▁jen":3111,"tämään":3112,"▁omat":3113,"▁onkin":3114,"▁noo":3115,"▁edell":3116,"▁pohjo":3117,"▁paavo":3118,"su":3119,"▁päänsä":3120,"▁tieto":3121,"▁at":3122,"ikään":3123,"▁hänkin":3124,"uttava":3125,"▁saun":3126,"tyään":3127,"▁pohja":3128,"▁huomenna":3129,"▁nis":3130,"▁ola":3131,"▁pork":3132,"istuks":3133,"▁kaupungin":3134,"▁sunnunta":3135,"anne":3136,"▁vettä":3137,"etön":3138,"▁mahta":3139,"iset\n":3140,"▁koko\n":3141,"miä":3142,"▁syksy":3143,"▁vieläkin":3144,"▁ber":3145,"▁miesten":3146,"▁kuoli":3147,"▁haav":3148,"don":3149,"isin,":3150,"us.\n":3151,"▁kiusa":3152,"▁piil":3153,"▁suos":3154,"▁pöydä":3155,"▁olemassa":3156,"▁joukossa":3157,"▁hirvi:":3158,"▁nosti":3159,"▁alkan":3160,"▁lähettä":3161,"▁liisa":3162,"▁valmista":3163,"▁do":3164,"▁otsa":3165,"▁län":3166,"ina.":3167,"▁minäkin":3168,"▁heidän\n":3169,"▁monet":3170,"quo":3171,"tell":3172,"▁ly":3173,"tää.":3174,"▁karja":3175,"▁pyyh":3176,"ene":3177,"ostaa":3178,"▁anka":3179,"▁perh":3180,"▁huuli":3181,"▁sattu":3182,"▁kysymys":3183,"llö":3184,"aton":3185,"▁ret":3186,"▁mitä\n":3187,"eeksi":3188,"yssä":3189,"▁nainen":3190,"▁nautti":3191,"▁jö":3192,"▁pai":3193,"essä\n":3194,"eksi.":3195,"uksen,":3196,"▁määrä":3197,"▁tiedä,":3198,"anta":3199,"istui":3200,"▁liit":3201,"▁hitaasti":3202,"▁tavoin":3203,"▁käär":3204,"▁mai":3205,"▁asu":3206,"▁tuul":3207,"▁sääli":3208,"▁pell":3209,"▁tait":3210,"▁ees":3211,"▁laiv":3212,"▁kerta":3213,"▁muutamia":3214,"▁yhteis":3215,"▁hämmästy":3216,"ppä":3217,"▁siitä\n":3218,"▁ollu":3219,"▁ajaa":3220,"▁viikko":3221,"▁vuos":3222,"jen\n":3223,"kään.":3224,"▁eikä\n":3225,"▁juus":3226,"▁saavat":3227,"eet,":3228,"▁paremmin":3229,"▁porta":3230,"▁vään":3231,"sivat":3232,"▁työtä":3233,"▁ved":3234,"▁odottaa":3235,"isee":3236,"▁ba":3237,"rsky":3238,"▁ikinä":3239,"▁onnell":3240,"hun":3241,"ti\n":3242,"▁sain":3243,"riin":3244,"▁siltä":3245,"▁martin":3246,"▁vene":3247,"▁tyytyvä":3248,"▁ag":3249,"utta,":3250,"▁rauta":3251,"▁hiih":3252,"▁suurta":3253,"neenä":3254,"▁itä":3255,"▁pus":3256,"▁noud":3257,"vaa,":3258,"▁tahdon":3259,"▁tahtoo":3260,"▁kotona":3261,"▁epät":3262,"dessään":3263,"▁im":3264,"usten":3265,"▁kevät":3266,"ansa.":3267,"▁luona":3268,"▁isänsä":3269,"▁ehtin":3270,"▁taivas":3271,"▁sanaa":3272,"▁yhtään":3273,"huone":3274,"▁tahan":3275,"▁para":3276,"jansa":3277,"▁teillä":3278,"▁siihen,":3279,"▁synti":3280,"▁siiv":3281,"va\n":3282,"ottanut":3283,"▁muiden":3284,"iston":3285,"▁mitään.":3286,"tunut,":3287,"▁jumalaa":3288,"jasta":3289,"▁kokona":3290,"▁eur":3291,"mana":3292,"▁kuulunut":3293,"▁halua":3294,"▁.\n":3295,"▁veti":3296,"▁jos\n":3297,"▁valke":3298,"▁ihmisi":3299,"issä.":3300,"▁niitä,":3301,"▁vahv":3302,"bi":3303,"usta\n":3304,"▁paras":3305,"▁rinta":3306,"kymmentä":3307,"tet":3308,"llei":3309,"▁nöy":3310,"▁heik":3311,"▁liis":3312,"▁tarvi":3313,"▁saivat":3314,"▁sielu":3315,"jalle":3316,"mattom":3317,"maa,":3318,"▁jonkin":3319,"uun,":3320,"▁tyhj":3321,"kaupun":3322,"▁vaisto":3323,"▁sata":3324,"▁salais":3325,"▁mata":3326,"▁silloin\n":3327,"▁juoksi":3328,"▁maanti":3329,"▁nouse":3330,"▁kädet":3331,"lta,":3332,"koot":3333,"mällä":3334,"kaa.":3335,"▁harr":3336,"llisia":3337,"▁rus":3338,"▁hedel":3339,"▁sovit":3340,"▁tietää,":3341,"dy":3342,"hön":3343,"tio":3344,"mme.\n":3345,"istun":3346,"▁ihmisiä":3347,"▁painoi":3348,"ru":3349,"▁pään":3350,"uti":3351,"▁ehti":3352,"ossa.":3353,"▁saattaa":3354,"▁pöydän":3355,"▁yll":3356,"▁raha":3357,"▁perhe":3358,"▁täältä":3359,"▁saatta":3360,"▁huolimatta":3361,"py":3362,"▁vyö":3363,"▁kyken":3364,"▁vastaan.":3365,"kkia":3366,"▁aal":3367,"▁varsinkin":3368,"tit":3369,"▁jäs":3370,"essa.\n":3371,"▁sol":3372,"ni,":3373,"▁edelleen":3374,"▁kunnia":3375,"pitä":3376,"saa":3377,"▁joista":3378,"▁sekin":3379,"▁saksan":3380,"ottom":3381,"▁kiro":3382,"ne.\n":3383,"▁lähde":3384,"▁todista":3385,"hka":3386,"jia":3387,"tis":3388,"ys,":3389,"▁di":3390,"▁yksity":3391,"▁saaneet":3392,"▁odotti":3393,"llisten":3394,"iku":3395,"▁joutu":3396,"ellä.":3397,"▁jonka\n":3398,"kseen.\n":3399,"co":3400,"s\n":3401,"▁vien":3402,"kö,":3403,"▁perässä":3404,"▁vaiva":3405,"▁huuta":3406,"▁hmm":3407,"▁kylän":3408,"▁varma":3409,"▁vaikut":3410,"lta\n":3411,"▁häntä,":3412,"▁läksi":3413,"▁tytär":3414,"▁viimein":3415,"▁pisti":3416,"▁avi":3417,"▁päätään":3418,"▁suor":3419,"▁hetke":3420,"▁auki":3421,"ytyy":3422,"▁koke":3423,"too":3424,"ottiin":3425,"ua\n":3426,"▁suorit":3427,"▁keski":3428,"▁saira":3429,"▁suhte":3430,"▁tuijotti":3431,"mää":3432,"tävästi":3433,"utettu":3434,"▁lave":3435,"▁hake":3436,"▁antin":3437,"nyt\n":3438,"▁ruumiin":3439,"▁ajo":3440,"▁seka":3441,"ksesi":3442,"kua":3443,"▁tunti":3444,"tely":3445,"▁vuod":3446,"▁maata":3447,"▁lämm":3448,"▁tanska":3449,"▁vahin":3450,"▁hyp":3451,"▁kolm":3452,"▁pysähtyi":3453,"gan":3454,"▁huh":3455,"▁kuunn":3456,"▁ajatell":3457,"▁tää\n":3458,"▁siellä\n":3459,"▁vaara":3460,"▁kuollut":3461,"tänsä":3462,"▁taivaa":3463,"▁onnettom":3464,"elma":3465,"istunut":3466,"▁siinä\n":3467,"▁lähtivät":3468,"▁tuntee":3469,"imm":3470,"▁kump":3471,"▁tote":3472,"▁vuoteen":3473,"▁myy":3474,"▁auk":3475,"ästä,":3476,"▁iltana":3477,"kenut":3478,"▁nen":3479,"▁eipä":3480,"▁hampa":3481,"▁väke":3482,"▁erää":3483,"▁help":3484,"▁aivan\n":3485,"koon,":3486,"▁talv":3487,"▁huul":3488,"▁tulevat":3489,"▁näkyy":3490,"ela":3491,"▁pieta":3492,"▁kär":3493,"▁päätö":3494,"▁järk":3495,"kkaasti":3496,"▁vaikea":3497,"▁morsi":3498,"▁ylioppil":3499,"llon":3500,"▁pahan":3501,"▁laih":3502,"▁äske":3503,"▁tuomio":3504,"utun":3505,"eilla":3506,"nyt.":3507,"▁tunnen":3508,"▁herm":3509,"▁meidät":3510,"raali":3511,"▁pehme":3512,"▁eräänä":3513,"▁kuiskasi":3514,"kur":3515,"▁noita":3516,"▁kuulla":3517,"▁kanna":3518,"▁tehty":3519,"▁kasvonsa":3520,"▁lisää":3521,"▁valtio":3522,"▁kiil":3523,"▁topi":3524,"assaan":3525,"▁verran":3526,"▁välillä":3527,"▁nousee":3528,"ti,":3529,"toja":3530,"▁epätoi":3531,"▁laveer":3532,"ska":3533,"enne":3534,"usta.\n":3535,"▁taas\n":3536,"▁mieliku":3537,"▁pul":3538,"sii":3539,"eille":3540,"koja":3541,"▁eteensä":3542,"▁kylä":3543,"▁pui":3544,"▁vaan\n":3545,"▁joutunut":3546,"him":3547,"ita,":3548,"sut":3549,"si.":3550,"oita,":3551,"mansa":3552,"▁päivät":3553,"▁hetki":3554,"▁kohtalo":3555,"▁ellei":3556,"▁seinä":3557,"▁enempää":3558,"▁pidä":3559,"▁heitti":3560,"por":3561,"▁aikoi":3562,"▁ympärillä":3563,"▁pappilan":3564,"▁vala":3565,"▁yn":3566,"▁kivi":3567,"▁perkel":3568,"▁suuret":3569,"astoin":3570,"▁toisella":3571,"isista":3572,"etuksi":3573,"▁jokin":3574,"kir":3575,"elia":3576,"▁perästä":3577,"ksensa":3578,"▁ymmärtä":3579,"estyi":3580,"▁akkun":3581,"▁hyvästi":3582,"▁puhta":3583,"▁annan":3584,"▁tahdot":3585,"▁maisteri":3586,"▁kuningas":3587,"isen,":3588,"▁heräsi":3589,"▁järv":3590,"llisuus":3591,"▁etteivät":3592,"▁piispa":3593,"bot:":3594,"isi.\n":3595,"▁mukana":3596,"▁suurin":3597,"▁yleensä":3598,"▁katinka":3599,"▁oi":3600,"▁rei":3601,"▁leve":3602,"▁veljen":3603,"hteli":3604,"▁z":3605,"istää":3606,"isyyd":3607,"▁oik":3608,"▁sisäl":3609,"▁riipp":3610,"▁pot":3611,"▁jouk":3612,"▁kod":3613,"to,":3614,"▁heikki":3615,"▁kaikista":3616,"▁kaikkein":3617,"▁aar":3618,"hoja":3619,"mään.\n":3620,"▁mitään\n":3621,"▁juoks":3622,"▁vanhempi":3623,"▁kymmenen":3624,"▁lähtenyt":3625,"▁ark":3626,"ellyt":3627,"ina.\n":3628,"▁silti":3629,"▁lisäksi":3630,"▁suoj":3631,"▁ovat\n":3632,"▁entistä":3633,"lat":3634,"enkin":3635,"eita,":3636,"▁makasi":3637,"▁voi,":3638,"▁silloin,":3639,"▁olla\n":3640,"▁katsahti":3641,"▁sähkö":3642,"kina":3643,"tänyt,":3644,"▁sielun":3645,"isyyt":3646,"▁lienee":3647,"▁jalo":3648,"lia":3649,"▁itke":3650,"kenn":3651,"▁sanomal":3652,"▁da":3653,"▁lopuksi":3654,"▁yritti":3655,"▁väärin":3656,"maisesti":3657,"koa":3658,"▁pakko":3659,"▁antoni":3660,"▁seuraavana":3661,"vil":3662,"is\n":3663,"▁tem":3664,"▁niihin":3665,"▁tällö":3666,"▁todellis":3667,"itsee":3668,"▁olevansa":3669,"▁eteenpäin":3670,"▁ajoi":3671,"tuks":3672,"▁mars":3673,"▁sana":3674,"▁syys":3675,"▁liika":3676,"joukko":3677,"▁poika,":3678,"ok":3679,"itteli":3680,"▁viiv":3681,"▁niinpä":3682,"▁hauta":3683,"▁heil":3684,"▁katseensa":3685,"ansa\n":3686,"▁saatu":3687,"▁lintu":3688,"▁niille":3689,"ukseen":3690,"▁tulo":3691,"nut.":3692,"▁luonnon":3693,"▁yksinkerta":3694,"▁taakse":3695,"jö":3696,"olle":3697,"telin":3698,"▁pelasta":3699,"▁kaune":3700,"▁nauroi":3701,"▁aavista":3702,"▁tyttär":3703,"▁riv":3704,"▁kuvas":3705,"▁jospa":3706,"▁ite":3707,"▁vastan":3708,"▁moni":3709,"▁merki":3710,"▁luuli":3711,"▁milloinkaan":3712,"en:\n":3713,"▁joissa":3714,"▁täs":3715,"rille":3716,"▁jär":3717,"▁muutaman":3718,"▁ikävä":3719,"fi":3720,"ts":3721,"ties":3722,"▁kummin":3723,"▁sehän":3724,"inä,":3725,"▁sulo":3726,"ikaa":3727,"itt":3728,"▁lemm":3729,"▁kovasti":3730,"▁paken":3731,"van.":3732,"▁usei":3733,"▁vetää":3734,"▁niillä":3735,"▁puutar":3736,"berg":3737,"▁mesta":3738,"▁sija":3739,"▁koto":3740,"▁puheen":3741,"asivat":3742,"uudessa":3743,"kseen\n":3744,"▁säik":3745,"▁pahaa":3746,"▁valtione":3747,"ujen":3748,"▁,":3749,"oili":3750,"▁olimme":3751,"▁kork":3752,"▁korva":3753,"▁synnyt":3754,"▁elämässä":3755,"päs":3756,"▁käyttää":3757,"▁vuon":3758,"▁sanoi\n":3759,"ansa.\n":3760,"▁monen":3761,"▁aikan":3762,"▁tuntenut":3763,"eva":3764,"ille,":3765,"on.\n":3766,"▁luonno":3767,"▁ikäv":3768,"ittaa":3769,"▁haj":3770,"▁raj":3771,"ukut":3772,"lta.\n":3773,"ettu,":3774,"▁kolman":3775,"▁eteenpä":3776,"▁laveerre":3777,"ec":3778,"et.":3779,"▁läs":3780,"usko":3781,"ua.\n":3782,"▁ill":3783,"▁ylen":3784,"▁jalka":3785,"kes":3786,"u.":3787,"▁kuus":3788,"▁kosken":3789,"▁vastusta":3790,"▁not":3791,"▁kov":3792,"isilla":3793,"▁jessebot:":3794,"dään":3795,"▁noi":3796,"kor":3797,"ätti":3798,"▁kulu":3799,"▁co":3800,"▁viimeinen":3801,"▁paska":3802,"▁hieno":3803,"▁keskustel":3804,"puh":3805,"▁omasta":3806,"kinä":3807,"▁istuu":3808,"essä.\n":3809,"nut\n":3810,"▁täyty":3811,"▁talossa":3812,"▁oispa":3813,"▁päätti":3814,"▁hyvät":3815,"▁puhuu":3816,"▁järven":3817,"▁aaron":3818,"▁pyhän":3819,"teki":3820,"▁loista":3821,"▁osta":3822,"▁kone":3823,"▁naapur":3824,"ge":3825,"▁him":3826,"▁jaksan":3827,"ne.":3828,"istä.\n":3829,"▁enää\n":3830,"▁pirt":3831,"▁runo":3832,"▁noora":3833,"g:":3834,"▁and":3835,"eni.":3836,"massa,":3837,"▁kuolema":3838,"vun":3839,"von":3840,"▁vin":3841,"sien":3842,"▁nimis":3843,"toista":3844,"tojen":3845,"▁harma":3846,"ger":3847,"lle,\n":3848,"▁hau":3849,"▁ansa":3850,"kyl":3851,"▁äänensä":3852,"▁asiaa":3853,"▁käsittä":3854,"▁hymyili":3855,"▁hoita":3856,"▁kauk":3857,"▁yrj":3858,"neet.":3859,"▁muistan":3860,"miehet":3861,"▁ain":3862,"mään\n":3863,"▁hous":3864,"▁rakkaus":3865,"ce":3866,"ltaan":3867,"essani":3868,"▁koetta":3869,"yön":3870,"asti,":3871,"▁oola":3872,"▁nuoren":3873,"▁auti":3874,"▁saarn":3875,"▁juuso":3876,"uvan":3877,"isesti,":3878,"▁miehiä":3879,"llisuuden":3880,"▁välttä":3881,"▁sydämensä":3882,"▁jonatan":3883,"tanut,":3884,"▁jotka\n":3885,"▁silmissä":3886,"pat":3887,"pöy":3888,"▁ryy":3889,"▁komen":3890,"▁yo":3891,"paik":3892,"▁kaikille":3893,"▁mitäs":3894,"▁ajattele":3895,"▁jumala,":3896,"▁kartan":3897,"▁kaarina":3898,"mpia":3899,"▁hallit":3900,"▁kaukana":3901,"lei":3902,"m.":3903,"puu":3904,"▁niissä":3905,"▁pauh":3906,"tetaan":3907,"▁itki":3908,"kunna":3909,"▁vaikka\n":3910,"▁tuttu":3911,"▁tekevät":3912,"llensa":3913,"▁lehti":3914,"▁etel":3915,"▁kertom":3916,"tuneena":3917,"emman":3918,"▁herras":3919,"▁fara":3920,"talo":3921,"kaik":3922,"▁koton":3923,"ään.\n":3924,"ot\n":3925,"▁minä,":3926,"▁olemaan":3927,"jana":3928,"eet\n":3929,"▁riis":3930,"ksensä":3931,"▁pane":3932,"jien":3933,"▁hetkellä":3934,"▁ölj":3935,"isin\n":3936,"istiin":3937,"tävät":3938,"▁okei":3939,"▁hän.":3940,"▁avar":3941,"▁korj":3942,"▁kokko":3943,"▁eilen":3944,"▁naisen":3945,"▁bi":3946,"▁sanoi:\n":3947,"▁ajatellut":3948,"ettua":3949,"▁käski":3950,"osta.":3951,"▁can":3952,"▁elämää":3953,"▁kuunteli":3954,"▁jaako":3955,"kän":3956,"▁omaan":3957,"mmas":3958,"kkien":3959,"▁ajatella":3960,"neet\n":3961,"▁helv":3962,"▁selvä":3963,"▁israelin":3964,"▁enkeli":3965,"kuin\n":3966,"▁äitinsä":3967,"▁todellakin":3968,"▁tanska:":3969,"▁juttu":3970,"▁on.":3971,"▁sad":3972,"istan":3973,"vir":3974,"▁muuan":3975,"▁kirje":3976,"▁hanna":3977,"lly":3978,"▁vain,":3979,"▁sini":3980,"▁sitten,":3981,"▁naut":3982,"▁velvo":3983,"▁uhkaa":3984,"▁lääkä":3985,"▁ehtinyt":3986,"ue":3987,"▁kin":3988,"vaa\n":3989,"▁pitäis":3990,"▁herrat":3991,"▁välin":3992,"▁suhteen":3993,"▁kuum":3994,"▁katsel":3995,"▁harti":3996,"▁jättää":3997,"▁myrsky":3998,"!!":3999,"▁laiva":4000,"kenyt":4001,"▁ylpe":4002,"llisuutta":4003,"▁minun\n":4004,"▁kenties":4005,"▁avulla":4006,"▁jeesus":4007,"mun":4008,"▁sö":4009,"▁kala":4010,"▁viikon":4011,"▁en\n":4012,"▁kaikke":4013,"▁neuvo":4014,"▁vaike":4015,"mea":4016,"▁matkan":4017,"▁ohi":4018,"▁syödä":4019,"▁ulkopuol":4020,"▁aihe":4021,"oja,":4022,"▁ton":4023,"▁jollei":4024,"sil":4025,"▁kop":4026,"▁maks":4027,"▁ihana":4028,"▁kasva":4029,"▁puoleen":4030,"▁haluu":4031,"▁toisinaan":4032,"▁elämänsä":4033,"▁huonees":4034,"▁määrät":4035,"▁ihmeell":4036,"▁vuonna":4037,"h\n":4038,"hää":4039,"ase":4040,"▁kama":4041,"tor":4042,"ottomasti":4043,"paan":4044,"matka":4045,"▁aina\n":4046,"rsin":4047,"▁vaale":4048,"ivat":4049,"▁muun":4050,"▁liha":4051,"▁lum":4052,"▁helvet":4053,"▁velho":4054,"▁tervehti":4055,"▁joo,":4056,"▁mukaan,":4057,"▁tuomit":4058,"▁varha":4059,"läis":4060,"järj":4061,"▁mieltä":4062,"uvos":4063,"▁illalla":4064,"▁ista":4065,"maksi":4066,"▁kirs":4067,"▁tunke":4068,"▁lähellä":4069,"▁liitty":4070,"esi,":4071,"▁meren":4072,"▁jäädä":4073,"▁tapahtuu":4074,"lis":4075,"mö":4076,"▁onni":4077,"▁lailla":4078,"▁maun":4079,"mille":4080,"▁rau":4081,"▁tuoks":4082,"▁arma":4083,"päivän":4084,"▁irti":4085,"▁lento":4086,"määrä":4087,"immä":4088,"▁sij":4089,"kojen":4090,"tuksen":4091,"veta":4092,"▁toiseen":4093,"▁raamat":4094,"▁miljo":4095,"▁kruun":4096,"▁ollenkaan":4097,"kell":4098,"ltä,":4099,"▁sään":4100,"▁teen":4101,"▁tipp":4102,"asti\n":4103,"▁pelkä":4104,"▁kirjan":4105,"▁elän":4106,"▁poltta":4107,"▁vastaan.\n":4108,"▁tekivät":4109,"bin":4110,"sti":4111,"▁uun":4112,"▁tapaa":4113,"▁kalta":4114,"▁vihan":4115,"▁kirv":4116,"▁tuke":4117,"▁ilmi":4118,"▁erity":4119,"▁alakul":4120,"▁riemu":4121,"hoita":4122,"vis":4123,"▁nime":4124,"▁ete":4125,"uha":4126,"kaansa":4127,"har":4128,"▁luotta":4129,"▁edusta":4130,"▁kanssa.\n":4131,"▁polvi":4132,"▁tiedus":4133,"▁henkilö":4134,"▁jöij":4135,"iri":4136,"aali":4137,"vahti":4138,"▁kiiv":4139,"▁maassa":4140,"▁juuta":4141,"▁kalpe":4142,"iseksi,":4143,"▁tyhjä":4144,"▁kahvi":4145,"▁tör":4146,"▁kyntti":4147,"▁pasto":4148,"siin":4149,"▁tein":4150,"eksi.\n":4151,"▁edessään":4152,"▁ymmärrä":4153,"▁neljän":4154,"▁myöhemmin":4155,"▁kis":4156,"▁kit":4157,"ihu":4158,"▁heit":4159,"▁heittää":4160,"▁minuun":4161,"ukkaa":4162,"▁kang":4163,"▁hävit":4164,"▁ajatukset":4165,"▁illan":4166,"▁talven":4167,"▁koira":4168,"▁rohke":4169,"net":4170,"▁hän.\n":4171,"▁täti":4172,"ksia":4173,"▁mua":4174,"ässä,":4175,"▁sävel":4176,"▁itsestään":4177,"▁jatka":4178,"▁jälki":4179,"▁nälkä":4180,"o.":4181,"ännyt":4182,"▁siuna":4183,"▁ong":4184,"llä.\n":4185,"▁jokaisen":4186,"▁mielensä":4187,"▁selma":4188,"▁asti,":4189,"▁sivu":4190,"▁armei":4191,"▁sonja":4192,"yys":4193,"▁syystä":4194,"▁keitti":4195,"▁fi":4196,"▁tulevan":4197,"▁jälkelä":4198,"mises":4199,"puna":4200,"vu":4201,"kaise":4202,"astui":4203,"keästi":4204,"tenä":4205,"▁syli":4206,"▁tulin":4207,"▁ollut,":4208,"teli\n":4209,"mpaa":4210,"vää,":4211,"▁annasti":4212,"▁luonto":4213,"▁tuhan":4214,"▁rakkauden":4215,"▁mooseks":4216,"▁syrjä":4217,"▁epätoivo":4218,"▁tällöin":4219,"▁jep":4220,"▁varmaa":4221,"▁kohtaan":4222,"esta.":4223,"▁käsit":4224,"▁tyl":4225,"▁jossain":4226,"▁raskas":4227,"▁vän":4228,"vaina":4229,"▁laat":4230,"▁heinä":4231,"▁anne":4232,"ppy":4233,"▁käveli":4234,"▁tuohon":4235,"matta,":4236,"eni\n":4237,"isten\n":4238,"▁keino":4239,"▁miehi":4240,"▁nähdessään":4241,"▁uudestaan":4242,"▁kauhe":4243,"isellä":4244,"▁nää":4245,"▁kappa":4246,"ottoman":4247,"▁lauta":4248,"olan":4249,"▁pääsee":4250,"aseen":4251,"elta,":4252,"▁minua,":4253,"piir":4254,"▁rip":4255,"isissa":4256,"▁air":4257,"▁vaiti":4258,"▁kurj":4259,"▁on.\n":4260,"▁tämm":4261,"yyh":4262,"▁nais":4263,"▁jatku":4264,"htu":4265,"uu\n":4266,"isesti\n":4267,"▁hiipi":4268,"▁sanoi:":4269,"▁häir":4270,"▁toimin":4271,"▁viimeisen":4272,"▁toiselle":4273,"▁tavallista":4274,"lon":4275,"ras":4276,"▁ääri":4277,"llista,":4278,"▁orj":4279,"▁ten":4280,"ilem":4281,"▁olen\n":4282,"▁kantoi":4283,"▁varti":4284,"▁aab":4285,"tanut\n":4286,"▁lämmin":4287,"jaa,":4288,"▁ruumis":4289,"▁tohtori":4290,"etta,":4291,"utensa":4292,"attom":4293,"▁miell":4294,"▁tälle":4295,"▁näistä":4296,"▁pors":4297,"ppo":4298,"▁iloit":4299,"▁kerro":4300,"▁tuli\n":4301,"▁siihen\n":4302,"▁käytän":4303,"▁vaimonsa":4304,"▁tarvinnut":4305,"kusta":4306,"teen,":4307,"vina":4308,"▁kaih":4309,"kil":4310,"▁paks":4311,"▁lumi":4312,"▁hänelle\n":4313,"▁avasi":4314,"kiksi":4315,"mist":4316,"yden":4317,"▁mamma":4318,"ppaa":4319,"▁ajatuksi":4320,"▁mieleensä":4321,"▁asiat":4322,"▁kutsu":4323,"▁huma":4324,"▁tel":4325,"▁jäy":4326,"▁naiset":4327,"▁sinä\n":4328,"▁harmaa":4329,"▁laulu":4330,"▁suuria":4331,"▁leima":4332,"▁toisensa":4333,"istys":4334,"▁outo":4335,"▁perintö":4336,"▁ok":4337,"etun":4338,"urin":4339,"ellä.\n":4340,"▁ollaan":4341,"▁marihu":4342,"myys":4343,"▁kanss":4344,"ityks":4345,"▁usea":4346,"▁täysin":4347,"▁marihuana":4348,"ttuu":4349,"▁riko":4350,"▁viisi":4351,"laan":4352,"▁asun":4353,"vät.":4354,"▁ilmassa":4355,"uksen\n":4356,"▁huoneen":4357,"▁taitaa":4358,"vänä":4359,"▁vieraan":4360,"▁huutaa":4361,"▁katsomaan":4362,"▁valtasi":4363,"▁cantell":4364,"▁jun":4365,"▁kaisa":4366,"kille":4367,"äänty":4368,"ten\n":4369,"▁alta":4370,"elleet":4371,"▁sano:":4372,"ettiin,":4373,"▁annin":4374,"▁loppuun":4375,"▁jäsen":4376,"der":4377,"jää":4378,"ilee":4379,"▁lakka":4380,"▁tuka":4381,"▁saata":4382,"▁erkka":4383,"▁puolella":4384,"▁panna":4385,"poh":4386,"▁kenraali":4387,"▁tiennyt":4388,"▁stark":4389,"ikymmentä":4390,"tas":4391,"▁ros":4392,"▁kulkee":4393,"▁ohjel":4394,"▁iisakki":4395,"om":4396,"jalla":4397,"mia,":4398,"▁syyt":4399,"▁sanoja":4400,"▁ylhää":4401,"▁talvi":4402,"▁cia":4403,"▁joosef":4404,"▁älköön":4405,"▁keksi":4406,"ko\n":4407,"▁viih":4408,"tää.\n":4409,"▁liitto":4410,"▁herää":4411,"▁erka":4412,"tään.":4413,"ille\n":4414,"▁päivänä,":4415,"▁hyökkä":4416,"▁suinkaan":4417,"l\n":4418,"inaa":4419,"▁oppi":4420,"ostaan":4421,"▁mielessään":4422,"▁tämä\n":4423,"uus,":4424,"▁täytti":4425,"▁rahaa":4426,"mättömän":4427,"▁cantell\n":4428,"jasi":4429,"kuo":4430,"kkas":4431,"attoman":4432,"ussa,":4433,"sähti":4434,"kot":4435,"▁pais":4436,"isia\n":4437,"▁päätä":4438,"▁parasta":4439,"▁keksin":4440,"▁pyysi":4441,"▁väliin":4442,"▁painui":4443,"▁runsa":4444,"▁tuijotta":4445,"da\n":4446,"▁huk":4447,"▁vila":4448,"▁asem":4449,"▁vang":4450,"▁levo":4451,"▁elämään":4452,"▁huvit":4453,"joita":4454,"ani,":4455,"llinen,":4456,"▁peli":4457,"eihin":4458,"▁hyvi":4459,"▁voiman":4460,"jan\n":4461,"uuteen":4462,"▁muuttui":4463,"▁tykö":4464,"▁lattia":4465,"▁leskin":4466,"▁aabraha":4467,"b\n":4468,"h,":4469,"as.\n":4470,"▁kais":4471,"▁olo":4472,"riä":4473,"▁marin":4474,"impi":4475,"▁vuoro":4476,"▁tai\n":4477,"▁tapauksessa":4478,"▁liikut":4479,"▁näyttivät":4480,"▁toimeen":4481,"▁keskeytti":4482,"▁leskinen:":4483,"je":4484,"▁käden":4485,"▁alussa":4486,"▁lähen":4487,"koihin":4488,"▁bar":4489,"▁tulee,":4490,"▁poikansa":4491,"▁riensi":4492,"▁viipy":4493,"?...":4494,"▁hin":4495,"attaa":4496,"onin":4497,"jain":4498,"▁senkin":4499,"▁mulle":4500,"▁menivät":4501,"estä.":4502,"▁helpo":4503,"▁uhr":4504,"▁toveri":4505,"essäni":4506,"▁moosekselle":4507,"▁nosta":4508,"▁laid":4509,"kaa.\n":4510,"▁mitäpä":4511,"▁veri":4512,"▁työhön":4513,"▁kolmen":4514,"▁säng":4515,"teri":4516,"▁ruh":4517,"▁oli.":4518,"ähteli":4519,"▁toisiin":4520,"▁nytkin":4521,"▁erino":4522,"▁sanoa,":4523,"▁olla,":4524,"▁nähtävästi":4525,"▁vaimon":4526,"▁ump":4527,"▁ruven":4528,"▁markkin":4529,"▁vapise":4530,"▁must":4531,"▁akka":4532,"▁ist":4533,"▁kuull":4534,"▁suora":4535,"▁vaikeni":4536,"▁koski":4537,"ssa,":4538,"▁itsekin":4539,"▁korvi":4540,"▁vaatim":4541,"▁järjes":4542,"▁huomautti":4543,"htui":4544,"isiin,":4545,"▁eng":4546,"▁tulleet":4547,"vä,":4548,"▁itsekseen":4549,"▁isännän":4550,"utuivat":4551,"▁ojensi":4552,"tuo":4553,"▁of":4554,"än.":4555,"▁petty":4556,"▁tall":4557,"▁seikka":4558,"koul":4559,"▁vii":4560,"rilla":4561,"▁kyse":4562,"▁toisin":4563,"▁anti":4564,"▁pitkään":4565,"▁tehtävä":4566,"▁tavallisesti":4567,"▁polv":4568,"▁iloinen":4569,"▁riippu":4570,"▁pehto\n":4571,"▁toimitta":4572,"kyt":4573,"inut":4574,"▁käh":4575,"▁tih":4576,"▁kukin":4577,"▁on?\n":4578,"sä.\n":4579,"▁suomi":4580,"▁perse":4581,"▁hengen":4582,"▁muodos":4583,"luu":4584,"liik":4585,"▁kuiska":4586,"kiel":4587,"▁kieli":4588,"▁ast":4589,"▁palkka":4590,"▁äkki":4591,"▁ainakaan":4592,"▁asiasta":4593,"ossa.\n":4594,"▁pientä":4595,"▁huoneeseen":4596,"▁alkanut":4597,"am":4598,"ss":4599,"▁hein":4600,"▁leipää":4601,"▁lohdut":4602,"illen":4603,"pasi":4604,"vissa":4605,"▁uus":4606,"▁voitta":4607,"▁joo\n":4608,"one":4609,"koit":4610,"▁haih":4611,"ralla":4612,"oitus":4613,"▁tunsin":4614,"▁sinusta":4615,"▁luo,":4616,"▁kohtaa":4617,"▁meitsi":4618,"▁aakus":4619,"▁mitään.\n":4620,"ille.":4621,"▁sairaan":4622,"ikseen":4623,"▁juha":4624,"▁uusia":4625,"▁sut":4626,"ittiin":4627,"▁ruun":4628,"tu,":4629,"ähtä":4630,"▁laita":4631,"▁häntä.":4632,"ossa\n":4633,"▁elo":4634,"▁kauas":4635,"▁uskova":4636,"▁jesse\n":4637,"▁sorm":4638,"▁ruotsin":4639,"▁opettaja":4640,"▁hermos":4641,"vih":4642,"▁rikko":4643,"▁toisia":4644,"▁raja":4645,"▁ilmaan":4646,"asia":4647,"▁kosk":4648,"▁kauka":4649,"▁rakkaud":4650,"▁äiti,":4651,"joi":4652,"kät":4653,"pen":4654,"isku":4655,"eeni":4656,"▁sar":4657,"ksiä":4658,"▁hyl":4659,"▁valh":4660,"vän\n":4661,"näkö":4662,"▁kysyy":4663,"▁selkä":4664,"▁löi":4665,"▁yötä":4666,"▁köyhä":4667,"▁sua":4668,"isyyden":4669,"▁isä,":4670,"▁puhetta":4671,"▁harta":4672,"uksia,":4673,"▁jättä":4674,"▁huomannut":4675,"ala":4676,"▁ket":4677,"mmo":4678,"▁makaa":4679,"▁kuume":4680,"▁huoka":4681,"▁yhä\n":4682,"teiden":4683,"neet.\n":4684,"▁ettei\n":4685,"tunut.":4686,"▁seisoo":4687,"tynyt,":4688,"▁ettekö":4689,"▁pystyyn":4690,"▁palvelija":4691,"▁lyyli":4692,"isimme":4693,"▁olka":4694,"▁niin...":4695,"osen":4696,"▁koske":4697,"▁hyvä,":4698,"▁alkoi\n":4699,"▁ympärö":4700,"▁vihollisen":4701,"▁pysähty":4702,"▁on?":4703,"uhr":4704,"▁poissa":4705,"▁minulta":4706,"issä.\n":4707,"jälk":4708,"tanut.":4709,"▁turhaan":4710,"▁ympäristö":4711,"pih":4712,"▁paist":4713,"laat":4714,"▁saatan":4715,"▁de":4716,"▁vaipui":4717,"▁sellaisen":4718,"▁tytöt":4719,"ytynyt":4720,"▁juho":4721,"▁sisälle":4722,"▁ääressä":4723,"isyys":4724,"taa,":4725,"ikin,":4726,"▁sijaan":4727,"▁tapi":4728,"astaa":4729,"▁senjälk":4730,"▁tehä":4731,"▁kirjoitta":4732,"▁saatte":4733,"▁pyöri":4734,"▁läsnä":4735,"▁yrjö":4736,"bri":4737,"oaa":4738,"isina":4739,"▁jaks":4740,"▁kuma":4741,"kinen":4742,"▁äly":4743,"teita":4744,"▁fo":4745,"▁kerran\n":4746,"▁jumalasi,":4747,"▁niille,":4748,"▁istuivat":4749,"▁järjesty":4750,"▁kahdeks":4751,"▁englan":4752,"vista":4753,"▁histo":4754,"essan":4755,"jahti":4756,"▁mah":4757,"▁är":4758,"▁päin,":4759,"▁silmin":4760,"▁jotkut":4761,"▁sanoi,":4762,"▁iä":4763,"▁pois.\n":4764,"tonsa":4765,"▁pohj":4766,"▁hevonen":4767,"▁laulainen":4768,"▁valtioneuvos":4769,"▁sot":4770,"▁nyyh":4771,"▁salli":4772,"ähtää":4773,"taansa":4774,"▁päin.":4775,"▁br":4776,"▁koste":4777,"▁houkut":4778,"▁suurempi":4779,"▁henk":4780,"▁salaa":4781,"▁semmoinen":4782,"ros":4783,"uteen":4784,"▁olipa":4785,"▁parin":4786,"milla":4787,"▁näen":4788,"ville":4789,"▁katosi":4790,"manni":4791,"▁valeh":4792,"▁valtaa":4793,"▁kesti":4794,"▁oletko":4795,"miseen":4796,"illaan":4797,"▁ilmestyi":4798,"▁voisin":4799,"▁puke":4800,"valti":4801,"▁huuda":4802,"▁poliisi":4803,"mmalla":4804,"▁mes":4805,"▁jauh":4806,"▁kunhan":4807,"▁poro":4808,"▁iski":4809,"▁asioita":4810,"ettu\n":4811,"▁kyllä,":4812,"▁tahi":4813,"▁tuulen":4814,"palvel":4815,"▁huuto":4816,"▁yläpuol":4817,"▁helposti":4818,"minä":4819,"yyt":4820,"▁nat":4821,"▁vieh":4822,"▁saasta":4823,"ihin,":4824,"▁hieman":4825,"▁kyllä\n":4826,"▁isäni":4827,"▁yöllä":4828,"▁luonn":4829,"iseksi.":4830,"▁avut":4831,"▁huoneessa":4832,"▁pirtin":4833,"▁siksi,":4834,"▁osannut":4835,"▁vakuutti":4836,"▁hehku":4837,"▁uskaltanut":4838,"▁vaistomaisesti":4839,"öö":4840,"etut":4841,"uttiin":4842,"utum":4843,"▁rist":4844,"▁kuta":4845,"▁samaan":4846,"▁teko":4847,"▁kulku":4848,"▁häpe":4849,"▁ilmoitti":4850,"▁hann":4851,"eeseen":4852,"▁selity":4853,"isuudessa":4854,"▁erinoma":4855,"aika":4856,"▁kei":4857,"▁juko":4858,"oitan":4859,"▁asukka":4860,"▁valon":4861,"▁puhal":4862,"▁kasvaa":4863,"järven":4864,"▁hävi":4865,"▁edellä":4866,"tunut\n":4867,"▁hänet\n":4868,"▁arvel":4869,"▁tahtoisin":4870,"▁lempe":4871,"▁matala":4872,"▁soin":4873,"▁jur":4874,"tät":4875,"▁olit":4876,"ät,":4877,"▁olisit":4878,"▁viitta":4879,"▁lakkaa":4880,"▁maj":4881,"▁menesty":4882,"▁sosi":4883,"▁voimaa":4884,"▁vaikkei":4885,"▁parati":4886,"▁arvos":4887,"▁käänsi":4888,"▁hiljaisuus":4889,"▁hetkisen":4890,"bert":4891,"▁maahan,":4892,"▁vastenmiel":4893,"▁näyttänyt":4894,"▁hämmäs":4895,"▁hirve":4896,"▁ikävö":4897,"kys":4898,"▁ste":4899,"▁mis":4900,"täv":4901,"es\n":4902,"▁auttaa":4903,"kohta":4904,"▁maat":4905,"▁muutta":4906,"▁teistä":4907,"yttävä":4908,"▁puolelta":4909,"▁veren":4910,"konsa":4911,"▁ostaa":4912,"▁paljon\n":4913,"▁kiinni,":4914,"▁taistelu":4915,"quot":4916,"oon,":4917,"▁hukku":4918,"itetty":4919,"▁jouni":4920,"▁kurs":4921,"▁karj":4922,"▁kour":4923,"▁viim":4924,"▁itku":4925,"▁voimalla":4926,"vän,":4927,"▁kuinka\n":4928,"pääll":4929,"▁jatkoi:\n":4930,"▁laaks":4931,"▁mahdollista":4932,"▁etkä":4933,"▁milla":4934,"▁tähti":4935,"▁eks":4936,"vät.\n":4937,"▁palat":4938,"▁sinäkin":4939,"kään.\n":4940,"▁onnellinen":4941,"▁rakastaa":4942,"▁sielunsa":4943,"▁asettui":4944,"▁päinv":4945,"▁patrik":4946,"▁öljy":4947,"juo":4948,"ttö":4949,"▁äh":4950,"ma\n":4951,"malta":4952,"▁yllä":4953,"isimm":4954,"▁tieltä":4955,"▁kaner":4956,"esta.\n":4957,"▁rakastan":4958,"▁juhann":4959,"isyyttä":4960,"▁hauska":4961,"▁niinkuin\n":4962,"▁mustan":4963,"▁johannes":4964,"▁nöyr":4965,"änn":4966,"at.":4967,"oil":4968,"ivi":4969,"▁nor":4970,"han,":4971,"▁hope":4972,"ille.\n":4973,"▁tuskan":4974,"▁hankki":4975,"▁tyyd":4976,"▁poski":4977,"▁suunnitel":4978,"▁profeet":4979,"▁luken":4980,"▁iv":4981,"▁hol":4982,"ellen\n":4983,"▁paho":4984,"▁ravin":4985,"väen":4986,"rvo":4987,"▁soh":4988,"▁vars":4989,"isesti.":4990,"lliseen":4991,"ässä\n":4992,"▁nähden":4993,"▁sellaisia":4994,"▁antakaa":4995,"▁sääs":4996,"▁hiljaa,":4997,"▁huolet":4998,"▁paikalla":4999,"▁kumminkin":5000,"asen":5001,"▁kukki":5002,"▁seisa":5003,"astaan\n":5004,"mäen":5005,"▁tuomas":5006,"▁voi\n":5007,"isesti.\n":5008,"iksi\n":5009,"lleen\n":5010,"ettiin\n":5011,"▁pann":5012,"▁kohda":5013,"▁selittää":5014,"muo":5015,"lleni":5016,"▁ove":5017,"▁vat":5018,"▁siit":5019,"ytty":5020,"otus":5021,"▁pill":5022,"kyn":5023,"teensa":5024,"▁uhka":5025,"llään,":5026,"▁kohti.":5027,"▁marin:":5028,"ril":5029,"östä":5030,"kari":5031,"▁kull":5032,"uttavan":5033,"vaksi":5034,"jaksi":5035,"▁kid":5036,"▁asum":5037,"rky":5038,"▁voivat":5039,"▁vaikutti":5040,"johta":5041,"▁turh":5042,"▁into":5043,"▁yönä":5044,"▁maksaa":5045,"vinaan":5046,"▁nyö":5047,"tiin,":5048,"▁kall":5049,"▁niil":5050,"▁tähd":5051,"▁etä":5052,"▁kerton":5053,"estä\n":5054,"▁kesän":5055,"▁eivät\n":5056,"▁ymmärtänyt":5057,"▁sisällä":5058,"▁tällainen":5059,"▁sopim":5060,"▁lämpim":5061,"etä":5062,"ra,":5063,"▁jer":5064,"main":5065,"inen:":5066,"▁ilon":5067,"essaan,":5068,"▁uskoi":5069,"▁här":5070,"▁kestää":5071,"▁meistä":5072,"▁tehd":5073,"jouko":5074,"▁pienet":5075,"llinen\n":5076,"▁porva":5077,"▁missään":5078,"▁sydäntä":5079,"▁joutuu":5080,"▁jyr":5081,"▁kuninkaan":5082,"▁tiedän,":5083,"▁hetkeksi":5084,"▁lemmen":5085,"m,":5086,"össä":5087,"llistä":5088,"▁jouta":5089,"ää.":5090,"▁niin.":5091,"▁laki":5092,"väki":5093,"▁kaikkialla":5094,"▁kertoa":5095,"▁ero":5096,"järv":5097,"▁kanssaan":5098,"▁unel":5099,"reä":5100,"▁niitä\n":5101,"▁sattuu":5102,"▁kiiruh":5103,"▁äärettö":5104,"▁kutsui":5105,"▁lähettää":5106,"▁porkka":5107,"▁vahing":5108,"kti":5109,"peli":5110,"▁höy":5111,"iton":5112,"iker":5113,"▁enhän":5114,"▁kiiva":5115,"▁minussa":5116,"▁menen":5117,"▁rikas":5118,"▁itse\n":5119,"▁käsin":5120,"▁henken":5121,"▁kenelle":5122,"astus":5123,"▁kohti,":5124,"▁esimerkiksi":5125,"▁mielikuvit":5126,"▁hih":5127,"▁nenä":5128,"unna":5129,"▁rot":5130,"▁taul":5131,"kin,\n":5132,"▁enkel":5133,"▁kimpp":5134,"mia\n":5135,"itä,":5136,"▁kantaa":5137,"▁lit":5138,"issaan,":5139,"kööt":5140,"vänsä":5141,"▁julista":5142,"▁lapsia":5143,"▁tekemään":5144,"hol":5145,"▁niem":5146,"ulan":5147,"teko":5148,"ehto":5149,"▁näillä":5150,"emok":5151,"läiset":5152,"▁erkki":5153,"▁kulunut":5154,"eksi\n":5155,"▁sanoen":5156,"ittävä":5157,"▁syöks":5158,"▁aamun":5159,"miesten":5160,"▁räj":5161,"▁ruveta":5162,"▁alitu":5163,"emmäksi":5164,"▁päällikkö":5165,"▁ruustin":5166,"▁lämpö":5167,"eltu":5168,"▁avaa":5169,"▁sekaan":5170,"ilu":5171,"paika":5172,"▁huomat":5173,"rana":5174,"esta\n":5175,"▁synt":5176,"▁vanhaa":5177,"▁kauppa":5178,"▁lopet":5179,"▁tuonne":5180,"▁edessä,":5181,"▁kilpa":5182,"▁tämmö":5183,"▁hon":5184,"▁viik":5185,"▁muistel":5186,"▁for":5187,"▁muistaa":5188,"änsä,":5189,"▁umm":5190,"▁molemm":5191,"▁saarna":5192,"▁täysi":5193,"▁ankara":5194,"▁senjälkeen":5195,"mei":5196,"y\n":5197,"isempi":5198,"vallan":5199,"▁minkään":5200,"päin,":5201,"telemään":5202,"▁luokse":5203,"▁sanoivat":5204,"▁lepä":5205,"▁katseen":5206,"uun.":5207,"ettuaan":5208,"▁julk":5209,"▁vanhat":5210,"▁nähdä,":5211,"▁unohd":5212,"▁jyrk":5213,"▁jussi.\n":5214,"▁hauskaa":5215,"oh":5216,"isk":5217,"▁niit":5218,"te,":5219,"otonta":5220,"▁ankar":5221,"▁sinua,":5222,"▁kuulin":5223,"▁totuuden":5224,"ilaisten":5225,"▁tässä\n":5226,"▁rakasti":5227,"ation\n":5228,"▁voimakas":5229,"▁rats":5230,"▁hevosen":5231,"▁tosiaan":5232,"moi":5233,"muks":5234,"muksen":5235,"▁nos":5236,"▁rää":5237,"seet":5238,"▁kohtaan,":5239,"▁uni":5240,"▁aivankuin":5241,"▁taloon":5242,"▁elias":5243,"▁gabri":5244,"▁avioli":5245,"▁kuvastui":5246,"imme":5247,"jon":5248,"oksi":5249,"pos":5250,"s.":5251,"▁sc":5252,"ass":5253,"▁taki":5254,"▁eteen,":5255,"▁sanottu":5256,"▁väit":5257,"aansa":5258,"▁kasvan":5259,"▁voidaan":5260,"▁loisti":5261,"▁hiuk":5262,"▁kulma":5263,"▁tuli,":5264,"▁kanssa\n":5265,"▁juokse":5266,"▁ensio":5267,"▁ohitse":5268,"ytyä":5269,"▁ikäänkuin\n":5270,"▁kenenkään":5271,"▁vaina":5272,"uttaa,":5273,"▁istua":5274,"estä.\n":5275,"▁erittäin":5276,"▁miehensä":5277,"▁näkynyt":5278,"▁talous":5279,"▁silmiin":5280,"meri":5281,"▁?\n":5282,"▁mm.":5283,"▁niina":5284,"ppel":5285,"▁lepo":5286,"▁myötä":5287,"koon.\n":5288,"ottava":5289,"▁poltto":5290,"▁paikoi":5291,"▁kustaa":5292,"mppu":5293,"uista":5294,"▁hoit":5295,"rakenn":5296,"kasti":5297,"▁ollut.":5298,"▁varr":5299,"▁maali":5300,"▁katsele":5301,"▁riika":5302,"▁fil":5303,"▁monesti":5304,"teeni":5305,"▁uskot":5306,"▁liikkui":5307,"▁hyvin\n":5308,"hin\n":5309,"m\n":5310,"ttanut":5311,"tat":5312,"tapa":5313,"▁sh":5314,"kean":5315,"▁etää":5316,"uilla":5317,"▁lähin":5318,"▁nousta":5319,"▁kohteli":5320,"▁kohotti":5321,"▁pelko":5322,"innan":5323,"▁merkki":5324,"▁reun":5325,"▁nimittäin":5326,"▁syytä":5327,"▁poliitt":5328,"▁mennään":5329,"▁upse":5330,"▁lasta":5331,"▁pappa":5332,"tuksi":5333,"isiä,":5334,"▁salo":5335,"▁kyll":5336,"käy":5337,"▁puhel":5338,"▁matkus":5339,"▁siinä,":5340,"▁vähää":5341,"▁ylhä":5342,"▁korp":5343,"televat":5344,"llisena":5345,"▁tunsi,":5346,"▁murhe":5347,"▁lenn":5348,"▁vihdoinkin":5349,"▁piispan":5350,"▁ruotsa":5351,"▁epäs":5352,"▁martva":5353,"▁lähettänyt":5354,"uvat":5355,"isinä":5356,"kau":5357,"▁viettä":5358,"▁laina":5359,"oin\n":5360,"▁tukka":5361,"▁tukki":5362,"tanen":5363,"hall":5364,"▁erila":5365,"▁ainaki":5366,"▁keve":5367,"▁tarpe":5368,"mpel":5369,"▁pois.":5370,"▁vieressä":5371,"▁uskoa":5372,"▁uskotto":5373,"ila:":5374,"▁tyrk":5375,"▁arvila:":5376,"▁virta":5377,"säni":5378,"▁välistä":5379,"▁mahdoton":5380,"▁ikkunan":5381,"emmaksi":5382,"iseen\n":5383,"ettuna":5384,"▁loit":5385,"▁kaip":5386,"▁mie":5387,"tena":5388,"tyne":5389,"▁toisessa":5390,"▁liina":5391,"▁valkea":5392,"essaan\n":5393,"▁menkää":5394,"▁vieläpä":5395,"tiin.":5396,"▁kului":5397,"▁matkaa":5398,"htivat":5399,"▁selvit":5400,"▁muuttu":5401,"▁kauppi":5402,"mmaksi":5403,"▁lopu":5404,"eita.":5405,"▁purj":5406,"▁matkalla":5407,"▁pystyssä":5408,"kkö":5409,"misesta":5410,"puoli":5411,"rin\n":5412,"▁sell":5413,"▁omia":5414,"▁puun":5415,"un.":5416,"usla":5417,"▁samat":5418,"▁eu":5419,"▁kysä":5420,"▁huokasi":5421,"▁elsa":5422,"▁osasi":5423,"▁nuoret":5424,"▁pyytää":5425,"päivänä":5426,"▁orri":5427,"kymmenen":5428,"▁ihmetteli":5429,"▁kuninkaa":5430,"▁euroo":5431,"▁jaksanut":5432,"ris":5433,"änne":5434,"▁puo":5435,"estan":5436,"▁kuiva":5437,"ehän":5438,"maansa":5439,"▁kuuta":5440,"▁erehd":5441,"▁helmer":5442,"massa\n":5443,"▁syntynyt":5444,"llaan.\n":5445,"▁ruumista":5446,"▁silmissään":5447,"▁sukupol":5448,"▁johdosta":5449,"meen":5450,"in,\n":5451,"▁je":5452,"et.\n":5453,"elt":5454,"▁kaina":5455,"ät\n":5456,"▁ville":5457,"▁mulla":5458,"▁ansi":5459,"▁kaikin":5460,"▁asui":5461,"▁väk":5462,"▁lukea":5463,"▁lassi.\n":5464,"▁turha":5465,"▁paljon,":5466,"▁viedä":5467,"▁nukkui":5468,"▁laittaa":5469,"▁ensimmäinen":5470,"▁maija":5471,"mystä":5472,"▁hät":5473,"▁auta":5474,"ellen,":5475,"ustaa":5476,"▁samma":5477,"ivan":5478,"▁haja":5479,"▁ole,":5480,"istuu":5481,"tään\n":5482,"▁kaunista":5483,"▁juhan":5484,"▁anteeksi,":5485,"▁sukula":5486,"▁pinja":5487,"▁eräma":5488,"▁oolavi":5489,"muka":5490,"kausi":5491,"▁johto":5492,"eillä":5493,"malle":5494,"▁toden":5495,"ppe":5496,"▁tuoli":5497,"istön":5498,"▁herro":5499,"▁valvo":5500,"▁saapu":5501,"▁häntä.\n":5502,"▁robert":5503,"▁rahat":5504,"▁mär":5505,"▁ainoata":5506,"▁sekä\n":5507,"▁käteensä":5508,"▁ymmärtää":5509,"matta.":5510,"▁entinen":5511,"▁irr":5512,"▁linnan":5513,"▁väntt":5514,"e.":5515,"uc":5516,"itin":5517,"aaksi":5518,"utta.":5519,"▁viiden":5520,"▁maini":5521,"paitsi":5522,"▁sof":5523,"▁vielä,":5524,"▁suosi":5525,"jä\n":5526,"▁me\n":5527,"▁kyllähän":5528,"▁hänet,":5529,"▁ge":5530,"▁vaari":5531,"ltä\n":5532,"▁aikais":5533,"▁jättänyt":5534,"▁vaatte":5535,"▁tarjo":5536,"dd":5537,"lem":5538,"put":5539,"▁kelta":5540,"▁selä":5541,"ikkaa":5542,"▁miette":5543,"▁katto":5544,"▁oikean":5545,"▁löytänyt":5546,"▁toisiaan":5547,"▁rukoili":5548,"jään":5549,"ori":5550,"intä":5551,"tari":5552,"▁junn":5553,"▁sodan":5554,"tön":5555,"▁pois\n":5556,"▁meri":5557,"▁rauhoit":5558,"▁pyytä":5559,"▁jostain":5560,"vuoti":5561,"▁omina":5562,"▁aikoina":5563,"▁puser":5564,"▁ser":5565,"▁th":5566,"esso":5567,"▁joen":5568,"ks\n":5569,"ja,\n":5570,"▁kius":5571,"van.\n":5572,"uksissa":5573,"▁sitäpaitsi":5574,"▁naisten":5575,"▁hopea":5576,"massa.":5577,"koon.":5578,"▁ilmoitta":5579,"▁aamuna":5580,"▁ottamaan":5581,"▁johonkin":5582,"▁tahansa":5583,"oike":5584,"es,":5585,"via,":5586,"▁tuo\n":5587,"▁te,":5588,"kassa,":5589,"läisten":5590,"ksenne":5591,"mpana":5592,"▁pannut":5593,"illa\n":5594,"illa,":5595,"▁herrasi":5596,"▁tiesi,":5597,"▁rukoile":5598,"▁masen":5599,"▁antonius":5600,"od":5601,"▁apu":5602,"▁ryn":5603,"▁kalle":5604,"▁miina":5605,"jar":5606,"osta\n":5607,"▁matar":5608,"▁kuusi":5609,"hal":5610,"jensa":5611,"ettu.":5612,"▁muutamat":5613,"▁rauhassa":5614,"▁kädessä":5615,"▁yrittä":5616,"▁egyptin":5617,"▁ynnä":5618,"ms":5619,"▁hat":5620,"▁joille":5621,"▁ristiin":5622,"▁pap":5623,"▁ettet":5624,"▁olkaa":5625,"inen,\n":5626,"▁kii":5627,"▁näin\n":5628,"▁poja":5629,"...?\n":5630,"▁palan":5631,"▁tehtä":5632,"▁kevä":5633,"▁henke":5634,"oa.\n":5635,"▁ymmärsi":5636,"ettiin.":5637,"▁kasvoilla":5638,"▁murh":5639,"▁kohti.\n":5640,"▁äänellä:\n":5641,"▁suostu":5642,"ä,\n":5643,"▁lee":5644,"ikkaan":5645,"▁joihin":5646,"▁sid":5647,"▁taist":5648,"▁paino":5649,"▁mir":5650,"man\n":5651,"uksella":5652,"▁luvat":5653,"▁kulttuu":5654,"▁muuka":5655,"tään.\n":5656,"▁matin":5657,"▁martta":5658,"▁halv":5659,"htaen":5660,"▁vaaran":5661,"▁mitenkä":5662,"▁jälkeen,":5663,"▁löytyy":5664,"▁koiran":5665,"mies,":5666,"oon.":5667,"mpaan":5668,"▁toimii":5669,"▁ylioppilas":5670,"kaikk":5671,"▁velvollis":5672,"▁paistoi":5673,"ssi":5674,"ste":5675,"▁pon":5676,"kalla":5677,"aten":5678,"▁kurit":5679,"▁maasta":5680,"▁mumm":5681,"▁asetta":5682,"▁aluksi":5683,"▁siltä,":5684,"▁pitivät":5685,"maa\n":5686,"▁kevää":5687,"▁hokkan":5688,"eltä,":5689,"▁rauhan":5690,"▁sulke":5691,"▁takaisin,":5692,"d,":5693,"muu":5694,"eto":5695,"ut.\n":5696,"tion":5697,"▁taikka":5698,"▁kolk":5699,"▁millään":5700,"▁tuomari":5701,"▁menemään":5702,"▁pitkää":5703,"▁lepää":5704,"mppa":5705,"▁kirjeen":5706,"▁sär":5707,"▁saattanut":5708,"▁ratkais":5709,"▁tunnusmer":5710,"▁lujasti":5711,"▁kokkola:":5712,"▁jöije":5713,"▁hokkanen:":5714,"iselta":5715,"ka\n":5716,"at.\n":5717,"▁hän:\n":5718,"▁kiven":5719,"ivaa":5720,"▁makuu":5721,"▁totu":5722,"▁kärsin":5723,"uole":5724,"▁vanki":5725,"▁ketä":5726,"▁isänmaa":5727,"▁hänelle,":5728,"▁pitäs":5729,"▁keng":5730,"▁uhri":5731,"▁suuri,":5732,"▁noussut":5733,"▁tutkin":5734,"▁vaihe":5735,"▁hymyillen":5736,"▁alakulo":5737,"▁hum":5738,"▁tutta":5739,"oihin,":5740,"▁ollutkaan":5741,"asi\n":5742,"▁häpeä":5743,"▁mielellään":5744,"▁kaukaa":5745,"▁pieno":5746,"▁sattunut":5747,"▁huv":5748,"▁tarttu":5749,"empana":5750,"▁muistutti":5751,"▁yleis":5752,"▁pietari":5753,"▁jaakob":5754,"▁annastiina":5755,"into":5756,"▁rut":5757,"oimme":5758,"jaan,":5759,"▁alhaa":5760,"▁souta":5761,"▁kylmän":5762,"yttänyt":5763,"isti\n":5764,"▁puolu":5765,"▁säp":5766,"▁vaar":5767,"▁kuitenkin\n":5768,"▁toisaa":5769,"▁oo\n":5770,"▁kiirehti":5771,"▁käskyn":5772,"▁kumpikin":5773,"het":5774,"pel":5775,"s,":5776,"västä":5777,"▁urs":5778,"▁ukon":5779,"til":5780,"▁vael":5781,"uttamaan":5782,"▁kiitä":5783,"▁kaiken,":5784,"▁asetti":5785,"▁valde":5786,"piel":5787,"▁siellä,":5788,"▁duun":5789,"▁sellaista,":5790,"▁valles":5791,"▁istumaan":5792,"▁elämästä":5793,"▁punainen":5794,"himi":5795,"▁myönsi":5796,"▁saapunut":5797,"▁istahti":5798,"nit":5799,"y,":5800,"iskeli":5801,"eile":5802,"▁sanot":5803,"▁pov":5804,"emmalla":5805,"▁minulle,":5806,"nut.\n":5807,"ni.":5808,"▁taita":5809,"ön,":5810,"▁kev":5811,"▁helvin":5812,"ittivät":5813,"▁merkit":5814,"▁kyyti":5815,"▁puhdas":5816,"jek":5817,"mista,":5818,"llani":5819,"ka,":5820,"▁jor":5821,"▁rys":5822,"yt\n":5823,"▁ee":5824,"▁eiks":5825,"▁rajat":5826,"▁asuu":5827,"▁tulta":5828,"▁yhtenä":5829,"han\n":5830,"▁luota":5831,"▁lupaa":5832,"▁jotakin,":5833,"▁oikeus":5834,"▁olla.":5835,"▁ian":5836,"uun.\n":5837,"▁halun":5838,"▁käsittää":5839,"▁lask":5840,"▁kuoh":5841,"▁epärö":5842,"▁kaipa":5843,"räpä":5844,"▁raskaa":5845,"▁markus":5846,"▁luulet":5847,"▁stella":5848,"▁agri":5849,"järjes":5850,"▁miljoon":5851,"ova":5852,"llisin":5853,"kaista":5854,"▁noiden":5855,"vällä":5856,"matta\n":5857,"eet.":5858,"▁lep":5859,"▁riittää":5860,"▁oikein\n":5861,"▁äänet":5862,"▁puolestaan":5863,"▁asioista":5864,"▁vähemmän":5865,"▁verrat":5866,"▁ula":5867,"▁polku":5868,"▁sinne,":5869,"▁elämäni":5870,"▁vält":5871,"oja.":5872,"▁voiton":5873,"▁uudell":5874,"▁kädessään":5875,"▁pilv":5876,"▁talonpoika":5877,"▁omituinen":5878,"▁tyynesti":5879,"▁kuluessa":5880,"▁välinpitä":5881,"▁ruvennut":5882,"be":5883,"hte":5884,"kähti":5885,"uen":5886,"yan":5887,"öri":5888,"▁sei":5889,"▁hik":5890,"▁omin":5891,"▁puus":5892,"▁sall":5893,"▁kip":5894,"▁lamp":5895,"▁muille":5896,"▁kato":5897,"▁kosket":5898,"▁ääneti":5899,"itti\n":5900,"kee\n":5901,"▁ympärillään":5902,"ityksen":5903,"▁miksei":5904,"▁alkaen":5905,"▁valitta":5906,"▁julia":5907,"bo":5908,"▁köy":5909,"▁veh":5910,"ikin\n":5911,"▁enna":5912,"tyneen":5913,"▁poj":5914,"▁hyviä":5915,"▁välk":5916,"▁tuoki":5917,"istetty":5918,"asti.":5919,"▁hätään":5920,"maail":5921,"▁oikeesti":5922,"▁hyvär":5923,"▁mies.":5924,"uutta,":5925,"▁pull":5926,"▁lapsi,":5927,"▁tyhjen":5928,"▁venäjän":5929,"▁kirkossa":5930,"luon":5931,"!...\n":5932,"kky":5933,"kytti":5934,"▁nuh":5935,"▁res":5936,"▁takas":5937,"uttaen":5938,"▁miestä,":5939,"▁sangen":5940,"▁mui":5941,"▁tup":5942,"▁tuvan":5943,"oittanut":5944,"▁lähden":5945,"▁ämm":5946,"▁maala":5947,"▁kevään":5948,"▁puolusta":5949,"idan":5950,"▁sinne\n":5951,"▁päättänyt":5952,"▁rupe":5953,"▁toivon":5954,"▁kulkivat":5955,"▁silmänräpä":5956,"▁kelpaa":5957,"▁ajattelem":5958,"▁renki":5959,"▁utelia":5960,"▁helsing":5961,"▁veljensä":5962,"eksen":5963,"ety":5964,"eitä,":5965,"▁kuvaa":5966,"inä\n":5967,"▁kipe":5968,"▁muuttaa":5969,"▁tuov":5970,"▁ärj":5971,"▁nah":5972,"▁luov":5973,"▁mielessä":5974,"▁selvää":5975,"▁yliop":5976,"▁mikäli":5977,"▁myöskään":5978,"▁juuri\n":5979,"▁olli":5980,"itoista":5981,"▁löytä":5982,"nyks":5983,"▁lang":5984,"▁toistensa":5985,"▁liikkeelle":5986,"▁lähettil":5987,"▁pastori":5988,"jas":5989,"▁siyan":5990,"villa":5991,"▁meno":5992,"▁edesta":5993,"▁oikeuden":5994,"▁ii":5995,"▁ennen\n":5996,"▁elin":5997,"osta.\n":5998,"▁ohja":5999,"▁luulta":6000,"▁inf":6001,"▁näki,":6002,"▁löytää":6003,"▁sanonut,":6004,"▁kyynä":6005,"▁paljoa":6006,"▁you":6007,"▁tuovinen:":6008,"▁takia":6009,"mmeni":6010,"isiin.":6011,"telen":6012,"▁ihminen,":6013,"▁päivä,":6014,"▁matkusta":6015,"▁tämän\n":6016,"▁tietois":6017,"▁näkivät":6018,"▁keskuud":6019,"▁pitkät":6020,"▁apua":6021,"▁selittä":6022,"▁varmaankin":6023,"▁ilmestys":6024,"▁hyppäsi":6025,"▁varova":6026,"▁korkei":6027,"▁säännö":6028,"▁intohim":6029,"emi":6030,"▁meh":6031,"▁otan":6032,"▁leena":6033,"▁mitää":6034,"▁ener":6035,"▁laur":6036,"▁rahan":6037,"▁teur":6038,"▁menettä":6039,"tuu\n":6040,"▁kättä":6041,"▁jatkaa":6042,"▁aikaa,":6043,"ytyivät":6044,"▁esille":6045,"▁herransa":6046,"▁äläkä":6047,"▁tapasi":6048,"▁suomessa":6049,"mestari":6050,"▁perkele":6051,"kirja":6052,"huut":6053,"punut":6054,"ismi":6055,"▁joun":6056,"▁vill":6057,"▁tuoksu":6058,"▁alko":6059,"▁voita":6060,"low":6061,"▁sanovat":6062,"▁mielu":6063,"▁olento":6064,"▁veis":6065,"▁chi":6066,"▁petä":6067,"▁täällä\n":6068,"▁nauraa":6069,"llisen\n":6070,"▁välähti":6071,"▁kotiin,":6072,"ittain":6073,"▁asti.\n":6074,"▁laaj":6075,"▁kiihkeästi":6076,"▁vuoroin":6077,"▁kysymyks":6078,"▁harvoin":6079,"▁suhteessa":6080,"kik":6081,"masi":6082,"osa":6083,"ves":6084,"▁johtaa":6085,"ustaan":6086,"valle":6087,"otin":6088,"tyneenä":6089,"paikka":6090,"imin":6091,"▁luvannut":6092,"etta.":6093,"▁korja":6094,"▁käske":6095,"▁kerran,":6096,"ltä.":6097,"▁käänn":6098,"▁jossa\n":6099,"▁jälkeensä":6100,"▁hannu":6101,"▁uudet":6102,"▁tarvits":6103,"▁asti.":6104,"▁penki":6105,"▁tervehd":6106,"▁kävivät":6107,"▁helvetin":6108,"▁annetaan":6109,"▁kyynär":6110,"has":6111,"leh":6112,"tisi":6113,"▁jys":6114,"▁posti":6115,"ytys":6116,"▁kahta":6117,"ilta,":6118,"ättö":6119,"▁eira":6120,"tover":6121,"▁ever":6122,"tensa":6123,"mattomasti":6124,"▁nai":6125,"kki\n":6126,"lliseksi":6127,"▁ennenkin":6128,"▁arvi":6129,"poli":6130,"▁viimeiset":6131,"▁vallitsi":6132,"▁rakkautta":6133,"herran":6134,"▁molempi":6135,"▁koettaa":6136,"▁onnea":6137,"▁ahdista":6138,"▁useimmat":6139,"akko":6140,"myyden":6141,"suo":6142,"u.\n":6143,"isuut":6144,"▁hellä":6145,"rian":6146,"ehan":6147,"▁anim":6148,"asti.\n":6149,"▁suus":6150,"▁bo":6151,"jan,":6152,"uksen.":6153,"▁horj":6154,"▁selkään":6155,"▁suuresti":6156,"istele":6157,"▁hyväs":6158,"▁johdat":6159,"▁herätti":6160,"▁ystäväni":6161,"rr":6162,"res":6163,"▁ui":6164,"isä":6165,"▁joki":6166,"▁avo":6167,"ustu":6168,"▁kata":6169,"istaan,":6170,"lainen,":6171,"▁sanoit":6172,"see":6173,"▁kaikessa":6174,"ukseksi":6175,"▁tulet":6176,"▁vaikuttaa":6177,"kkiin":6178,"▁jota\n":6179,"▁pelkäs":6180,"▁herralle":6181,"itti,":6182,"▁saanut\n":6183,"▁veneen":6184,"▁vallassa":6185,"▁israel":6186,"▁jotenkin":6187,"▁mennessään":6188,"▁olisiko":6189,"▁kahdeksan":6190,"▁varsina":6191,"hot":6192,"mik":6193,"suu":6194,"▁siemen":6195,"tu\n":6196,"▁viit":6197,"▁vide":6198,"▁kyen":6199,"läinen":6200,"▁suosit":6201,"▁luonut":6202,"▁luut":6203,"▁asiassa":6204,"▁totuus":6205,"ettyä":6206,"▁tytö":6207,"▁luule":6208,"myks":6209,"▁tilan":6210,"▁lyhyt":6211,"▁taskus":6212,"▁haavoit":6213,"▁ruumiinsa":6214,"▁säikäh":6215,"pö":6216,"utuneet":6217,"▁nei":6218,"▁nostaa":6219,"tien":6220,"▁kaver":6221,"▁komp":6222,"▁paimen":6223,"▁sade":6224,"tensä":6225,"pa\n":6226,"vi,":6227,"via\n":6228,"▁tuk":6229,"▁jokapäivä":6230,"▁päällä,":6231,"▁syven":6232,"ukset,":6233,"▁liia":6234,"▁neits":6235,"matonta":6236,"▁parempaa":6237,"▁kirjoitti":6238,"▁ca":6239,"▁pysyi":6240,"▁pyyn":6241,"▁mielenkiin":6242,"▁nykyään":6243,"▁suuteli":6244,"▁johtui":6245,"▁gabriel":6246,"dit":6247,"mur":6248,"pät":6249,"väs":6250,"▁seud":6251,"▁virs":6252,"▁kiell":6253,"▁kunno":6254,"▁näe":6255,"ppasi":6256,"▁tuolta":6257,"▁äi":6258,"nalla":6259,"▁lupasi":6260,"tiin.\n":6261,"▁sanotaan":6262,"▁riittä":6263,"yn\n":6264,"▁äänen":6265,"▁puolelle":6266,"▁yksikään":6267,"▁kuolle":6268,"▁minua\n":6269,"▁naurahti":6270,"▁sulj":6271,"▁näkymättö":6272,"▁puristi":6273,"▁kysyi:\n":6274,"▁eiköhän":6275,"▁salee":6276,"▁levottom":6277,"▁huomasi,":6278,"▁ryhtyi":6279,"▁peruste":6280,"▁kirkkoherra":6281,"huan":6282,"▁suorastaan":6283,"tista":6284,"▁ratta":6285,"▁valv":6286,"▁neit":6287,"tti\n":6288,"▁vaikutta":6289,"▁louk":6290,"▁lumo":6291,"▁kulkea":6292,"maahan":6293,"▁mielestään":6294,"▁juos":6295,"▁pysyy":6296,"▁katsoo":6297,"▁laulun":6298,"▁sulki":6299,"▁kons":6300,"▁taloud":6301,"▁pilka":6302,"▁koirat":6303,"▁lehd":6304,"▁kellon":6305,"oihin.":6306,"empänä":6307,"▁keskustelu":6308,"▁inno":6309,"▁mitkä":6310,"▁ymmärrät":6311,"▁nimismies":6312,"▁animation\n":6313,"gh":6314,"yr":6315,"is,":6316,"isiksi":6317,"iskel":6318,"▁hiv":6319,"kappa":6320,"aar":6321,"▁tam":6322,"▁koki":6323,"ättää":6324,"▁viil":6325,"tori":6326,"▁näihin":6327,"▁asen":6328,"teli,":6329,"▁suv":6330,"▁katsoa":6331,"yneen":6332,"▁myöhä":6333,"ita\n":6334,"uksena":6335,"tinsa":6336,"▁hiljan":6337,"ässä.":6338,"vaa.":6339,"▁käsk":6340,"▁osoitta":6341,"▁cec":6342,"▁miten\n":6343,"▁velji":6344,"ilia":6345,"▁hiljainen":6346,"▁tunnusta":6347,"▁jalat":6348,"▁kaipaa":6349,"▁ulos,":6350,"▁seisoivat":6351,"▁ajattelin":6352,"▁parann":6353,"▁zhuan":6354,"▁syöksyi":6355,"▁zhuang:":6356,"nne":6357,"issan":6358,"uten":6359,"▁ad":6360,"oilla,":6361,"▁tavan":6362,"os,":6363,"▁sanansa":6364,"ointi":6365,"▁paloni":6366,"▁be":6367,"▁sanovat:":6368,"▁tääl":6369,"▁voineet":6370,"▁epämäärä":6371,"▁tuhat":6372,"▁ihmishen":6373,"▁muoto":6374,"▁sivisty":6375,"▁talonpo":6376,"▁krist":6377,"▁erämaan":6378,"▁rannalla":6379,"▁tärkeä":6380,"▁uskalta":6381,"▁aakusti":6382,"mel":6383,"ål":6384,"▁isi":6385,"llesi":6386,"llansa":6387,"▁omassa":6388,"▁purska":6389,"tiö":6390,"▁etelä":6391,"▁viiko":6392,"pain":6393,"pale":6394,"oina":6395,"▁iltan":6396,"tanu":6397,"▁lukee":6398,"jä.":6399,"▁jotai":6400,"jaa\n":6401,"▁luullut":6402,"▁vihaa":6403,"▁koskaan\n":6404,"▁ympärilleen":6405,"▁tuntea":6406,"▁metsästä":6407,"▁usa":6408,"▁upp":6409,"▁kadulla":6410,"▁unoh":6411,"▁kirjoittaa":6412,"▁kannatta":6413,"▁älkääkä":6414,"mattomat":6415,"▁putosi":6416,"ein":6417,"kkon":6418,"musta":6419,"t.":6420,"umaan":6421,"tamaan":6422,"isem":6423,"▁olle":6424,"▁joukon":6425,"▁vava":6426,"oid":6427,"tyn":6428,"tyneet":6429,"▁tuotta":6430,"vani":6431,"isessa\n":6432,"▁sinulle,":6433,"▁herättä":6434,"▁huomatta":6435,"kki,":6436,"▁sulle":6437,"▁keks":6438,"▁homm":6439,"▁suuressa":6440,"▁dan":6441,"▁säv":6442,"▁haltu":6443,"etty,":6444,"▁yhtäkki":6445,"▁katsoen":6446,"▁epäluu":6447,"▁mielipit":6448,"oja\n":6449,"▁yhdeks":6450,"▁runoili":6451,"▁saadakseen":6452,"▁vihollis":6453,"▁tällaista":6454,"▁aikoja":6455,"▁saavutta":6456,"▁luostarin":6457,"▁harvina":6458,"▁kiireesti":6459,"▁joosua":6460,"▁nukkun":6461,"▁tavattoman":6462,"▁länsi":6463,"▁tyrkkö":6464,"voit":6465,"▁kb\n":6466,"▁smo":6467,"▁nuol":6468,"▁oli.\n":6469,"▁parv":6470,"▁etsin":6471,"▁viina":6472,"▁viini":6473,"▁kunn":6474,"▁sanottiin":6475,"▁ison":6476,"läisen":6477,"▁ihmistä":6478,"▁tehtiin":6479,"▁pelto":6480,"▁hartaasti":6481,"▁pankki":6482,"▁pitäj":6483,"▁vaali":6484,"ellen.":6485,"▁luulin":6486,"▁päästyään":6487,"▁tahtoisi":6488,"▁sääd":6489,"▁samana":6490,"▁ahker":6491,"▁kohdalla":6492,"▁sotilas":6493,"ben":6494,"▁...\n":6495,"isistä":6496,"▁omalla":6497,"een,\n":6498,"va.":6499,"laisille":6500,"▁tota":6501,"▁raat":6502,"ppia":6503,"asi.\n":6504,"▁luokseni":6505,"▁kuulua":6506,"▁hier":6507,"mentti":6508,"▁mielell":6509,"mättä,":6510,"▁poistu":6511,"▁vähän\n":6512,"▁wa":6513,"ustus":6514,"llisesti,":6515,"▁mistään":6516,"▁kukkul":6517,"▁maunu":6518,"▁stef":6519,"▁väkisin":6520,"hotta":6521,"juh":6522,"myyd":6523,"▁plan":6524,"▁ristin":6525,"▁tappa":6526,"kii":6527,"▁kome":6528,"otettu":6529,"oin,":6530,"▁iloa":6531,"▁heimo":6532,"▁tultuaan":6533,"▁suunta":6534,"▁kevy":6535,"▁elina":6536,"▁luulen":6537,"▁lopetti":6538,"▁tunnin":6539,"▁kaupunkiin":6540,"puku":6541,"▁entisen":6542,"▁auto":6543,"▁silmää":6544,"kkänä":6545,"▁loppui":6546,"▁kuuntele":6547,"▁suomalainen":6548,"▁tyrkkö:":6549,"bed":6550,"fa":6551,"▁mitta":6552,"▁määrin":6553,"▁omi":6554,"ellut,":6555,"maisi":6556,"▁niitten":6557,"otteli":6558,"▁kieh":6559,"▁kiukku":6560,"▁alusta":6561,"▁ärs":6562,"▁saa\n":6563,"▁hämi":6564,"▁lea":6565,"hti\n":6566,"▁tarke":6567,"▁irjan":6568,"▁itseni":6569,"▁täyttää":6570,"▁halki":6571,"▁jumalalle":6572,"▁tulee\n":6573,"kelin":6574,"▁pyr":6575,"▁purka":6576,"▁kanssan":6577,"▁voimakkaa":6578,"vastin":6579,"▁hellästi":6580,"▁tähden,":6581,"▁ryhd":6582,"▁tarkoitus":6583,"immat":6584,"▁juud":6585,"että,":6586,"▁num":6587,"uneen":6588,"oi,":6589,"▁kamari":6590,"▁pakkas":6591,"isiin\n":6592,"ista,\n":6593,"▁eer":6594,"▁lakan":6595,"▁haukku":6596,"▁olekaan":6597,"▁ämmä":6598,"▁päin.\n":6599,"▁muuttunut":6600,"ossaan":6601,"▁ulkon":6602,"ensä,":6603,"▁eivätkö":6604,"▁poistui":6605,"▁kuolleen":6606,"▁katsomaan,":6607,"▁polt":6608,"▁kansaa":6609,"▁jostakin":6610,"▁silmien":6611,"▁hyvin,":6612,"▁parhaiten":6613,"▁kumartui":6614,"▁pyyhkä":6615,"▁riippui":6616,"▁kruunun":6617,"▁ruustinna":6618,"▁cecilia":6619,"kkei":6620,"tta,":6621,"ikell":6622,"ikul":6623,"oi\n":6624,"▁taisi":6625,"▁kamm":6626,"kossa":6627,"llekin":6628,"valo":6629,"▁häikä":6630,"▁tehneet":6631,"▁paremm":6632,"▁totta,":6633,"mitta":6634,"▁vanha,":6635,"▁surun":6636,"oo\n":6637,"▁elia":6638,"▁räm":6639,"▁varten,":6640,"▁täydellisesti":6641,"▁lahj":6642,"▁noudatta":6643,"▁ihmisiä,":6644,"run":6645,"kaisin":6646,"laus":6647,"▁maja":6648,"▁pika":6649,"▁mitähän":6650,"▁alkuun":6651,"isesta\n":6652,"▁nojat":6653,"▁jäivät":6654,"▁sovi":6655,"▁edeltä":6656,"▁heti\n":6657,"▁oikealla":6658,"▁ääntä":6659,"▁onnistu":6660,"ellen.\n":6661,"▁leiri":6662,"▁nousivat":6663,"▁muutenkin":6664,"▁valkoinen":6665,"▁sairaa":6666,"▁joukosta":6667,"▁liene":6668,"▁yrittää":6669,"▁ateri":6670,"opi":6671,"▁estä":6672,"▁temp":6673,"▁kallis":6674,"▁kovaa":6675,"▁paro":6676,"▁liike":6677,"▁vieläkään":6678,"▁pers":6679,"▁katselee":6680,"moja":6681,"▁arki":6682,"▁juosta":6683,"▁yhtä\n":6684,"▁nuorempi":6685,"▁ehkäpä":6686,"▁toinen\n":6687,"▁ins":6688,"▁munkki":6689,"▁keskelle":6690,"▁jollain":6691,"▁edessä.":6692,"▁kuuluvat":6693,"▁unohta":6694,"▁puner":6695,"▁ovesta":6696,"▁tärke":6697,"▁uteli":6698,"▁nuorukainen":6699,"▁vauhti":6700,"▁berg:":6701,"▁puiden":6702,"▁käytännö":6703,"▁barba":6704,"▁fors":6705,"kettä":6706,"syn":6707,"▁jeh":6708,"este":6709,"▁vaun":6710,"▁kumpi":6711,"▁kara":6712,"▁kapin":6713,"ulin":6714,"▁sais":6715,"▁väkeä":6716,"▁itkuun":6717,"▁voimat":6718,"▁ihmeen":6719,"▁luokseen":6720,"▁puoleksi":6721,"▁nähty":6722,"▁mikä\n":6723,"▁vieraa":6724,"▁pyst":6725,"▁vanhus":6726,"▁kolmas":6727,"nous":6728,"▁lopussa":6729,"▁kohtal":6730,"▁inhimi":6731,"▁voitto":6732,"▁samalla\n":6733,"▁voinut\n":6734,"▁rupea":6735,"▁emännän":6736,"▁semmoista":6737,"▁mooseksen":6738,"▁hirmu":6739,"▁täyden":6740,"▁tappel":6741,"▁määrätty":6742,"evä":6743,"juma":6744,"oks":6745,"▁hit":6746,"änen":6747,"▁tra":6748,"eseen,":6749,"▁tarin":6750,"▁eil":6751,"▁kiittä":6752,"▁lauka":6753,"▁tuntunut":6754,"▁palv":6755,"▁hertta":6756,"▁tulkaa":6757,"▁valmist":6758,"▁menin":6759,"▁jätä":6760,"jat,":6761,"▁erotta":6762,"▁hiip":6763,"maa.":6764,"▁rieh":6765,"▁ripp":6766,"udessa":6767,"▁tarkasta":6768,"▁paljasta":6769,"ukot":6770,"▁ruoho":6771,"essaan.\n":6772,"▁iloisesti":6773,"▁tuntui,":6774,"▁hurj":6775,"▁kahvia":6776,"▁tiedon":6777,"▁suomalaiset":6778,"▁onneks":6779,"▁kuljet":6780,"▁naimisiin":6781,"▁sofia":6782,"jul":6783,"masta,":6784,"sch":6785,"▁mess":6786,"▁vastoin":6787,"▁rikki":6788,"llaan,":6789,"mmun":6790,"isillä":6791,"▁eksy":6792,"ihan":6793,"▁lampa":6794,"os\n":6795,"▁haut":6796,"▁tumma":6797,"▁aloin":6798,"▁sovin":6799,"▁vanno":6800,"▁ajatuksen":6801,"▁vaan,":6802,"▁pelaa":6803,"▁taaskin":6804,"massa.\n":6805,"▁arka":6806,"tuu,":6807,"▁siis\n":6808,"▁ch":6809,"▁estää":6810,"▁toiselta":6811,"▁tänää":6812,"detään":6813,"▁tunnel":6814,"llisesti\n":6815,"iseksi.\n":6816,"▁valtakunnan":6817,"▁pihalla":6818,"▁poiki":6819,"▁määrää":6820,"▁pyörä":6821,"▁pimeä":6822,"▁kierr":6823,"▁poikaa":6824,"▁israelilaiset":6825,"▁perheen":6826,"▁tempp":6827,"▁kro":6828,"▁lasi":6829,"▁aisti":6830,"tuva":6831,"ne\n":6832,"▁sanotta":6833,"aana":6834,"▁sod":6835,"▁suon":6836,"▁suoraa":6837,"▁kuule,":6838,"▁elävä":6839,"▁muusta":6840,"ettavan":6841,"▁pelät":6842,"llisella":6843,"▁joku\n":6844,"▁nuorta":6845,"▁sula":6846,"▁pieniä":6847,"▁voimakka":6848,"▁savu":6849,"▁israelilaisten":6850,"▁tekisi":6851,"▁jengi":6852,"▁reippa":6853,"▁puutarh":6854,"▁epäsel":6855,"▁luultavasti":6856,"emaan":6857,"▁siks":6858,"▁hattu":6859,"▁oika":6860,"att":6861,"une":6862,"ikön":6863,"▁sika":6864,"▁rö":6865,"▁nic":6866,"▁papi":6867,"tuvat":6868,"▁sauna":6869,"▁laitta":6870,"▁piika":6871,"▁näinä":6872,"▁hah":6873,"emur":6874,"▁asuin":6875,"▁tili":6876,"▁puha":6877,"telivät":6878,"▁katsella":6879,"▁ajatuksensa":6880,"▁keisa":6881,"▁äänetön":6882,"▁pelkkää":6883,"▁suurella":6884,"▁ylit":6885,"▁sinun\n":6886,"▁kuten\n":6887,"▁karko":6888,"▁syöksy":6889,"▁merkitse":6890,"▁abbed":6891,"▁nukkuu":6892,"▁varovasti":6893,"▁ristiri":6894,"ban":6895,"iä,":6896,"zz":6897,"▁?":6898,"▁kella":6899,"asa":6900,"atin":6901,"▁kaas":6902,"▁ei.":6903,"la,":6904,"lah":6905,"nee":6906,"▁maassa,":6907,"mii":6908,"▁asunn":6909,"▁tuoda":6910,"▁lähes":6911,"▁kyl\n":6912,"▁kohtaan.":6913,"▁bon":6914,"▁leiki":6915,"▁tehtävän":6916,"ita.":6917,"▁iiva":6918,"▁viere":6919,"▁unta":6920,"▁välitä":6921,"▁painaa":6922,"ystä.":6923,"▁alas,":6924,"▁syrjään":6925,"ottoma":6926,"▁lääkäri":6927,"gg":6928,"nsa":6929,"oista,":6930,"psi":6931,"pum":6932,"▁kra":6933,"▁musti":6934,"▁pl":6935,"▁avat":6936,"▁sive":6937,"▁valais":6938,"▁taho":6939,"säh":6940,"mmasta":6941,"jatar":6942,"keaa":6943,"▁kie":6944,"työ":6945,"▁muina":6946,"hdus":6947,"▁menossa":6948,"▁päivinä":6949,"uksi,":6950,"▁itsenä":6951,"▁halti":6952,"▁annettu":6953,"▁olevan\n":6954,"▁levisi":6955,"▁omituisen":6956,"▁väärä":6957,"▁vääryyttä":6958,"▁pysyä":6959,"voima":6960,"▁päällys":6961,"yksiä":6962,"▁professo":6963,"▁helvetti":6964,"lassa":6965,"minen,":6966,"vistä":6967,"ysi":6968,"ineet":6969,"▁kyt":6970,"▁set":6971,"llat":6972,"ettun":6973,"utte":6974,"▁noit":6975,"aston":6976,"▁kuvan":6977,"▁kupe":6978,"▁kumman":6979,"isiin.\n":6980,"va.\n":6981,"▁kaikilla":6982,"istusta":6983,"ukseen,":6984,"▁lähimmä":6985,"jattar":6986,"▁sopin":6987,"▁aiot":6988,"▁tehkää":6989,"ksen,":6990,"▁juu\n":6991,"▁hyväksi":6992,"▁yli,":6993,"▁peittä":6994,"▁vastus":6995,"▁wee":6996,"▁minulle\n":6997,"▁leipä":6998,"▁tuon\n":6999,"▁mihinkään":7000,"▁jeesuksen":7001,"▁nimensä":7002,"▁tarpeeksi":7003,"▁pelkäsi":7004,"▁ilmestysma":7005,"ah":7006,"gia":7007,"▁kisko":7008,"anut":7009,"isuutensa":7010,"äni,":7011,"▁lå":7012,"▁vaelta":7013,"ellista":7014,"yt.":7015,"▁nimit":7016,"▁pakan":7017,"▁oltu":7018,"kevä":7019,"▁enkö":7020,"▁mull":7021,"istettu":7022,"▁herkko":7023,"▁valossa":7024,"▁saamme":7025,"▁saadaan":7026,"▁menne":7027,"tti,":7028,"eni.\n":7029,"▁vaikutus":7030,"▁bir":7031,"▁jotain,":7032,"▁läp":7033,"▁unen":7034,"▁juoda":7035,"▁pitäjän":7036,"istossa":7037,"▁tavallaan":7038,"▁jälkeen.":7039,"▁kehitty":7040,"▁meidän\n":7041,"▁pöytä":7042,"▁pieni,":7043,"▁tuollainen":7044,"▁laskeutui":7045,"▁linnun":7046,"▁jättiläis":7047,"▁kyyneleet":7048,"▁pihamaa":7049,"▁hakemaan":7050,"▁klo":7051,"▁ovel":7052,"▁sille,":7053,"▁onpa":7054,"kin!":7055,"▁etu":7056,"▁hyrä":7057,"▁yhta":7058,"▁yhty":7059,"nä,":7060,"▁lapin":7061,"▁yksito":7062,"▁kaarin":7063,"▁go":7064,"▁uskovat":7065,"▁karit":7066,"▁minua.":7067,"▁lähtien":7068,"▁mikäs":7069,"▁kaupungissa":7070,"▁kuolemaan":7071,"▁vakuut":7072,"▁hullu":7073,"▁huomio":7074,"hyvä":7075,"▁sunnuntai":7076,"▁hiukan\n":7077,"taen":7078,"ytön":7079,"▁laut":7080,"▁lauri":7081,"▁kyö":7082,"▁hänenkin":7083,"ppila":7084,"▁askar":7085,"▁syyttä":7086,"▁alan":7087,"kasta,":7088,"▁voida":7089,"rann":7090,"isti,":7091,"rsta":7092,"▁homma":7093,"▁isännä":7094,"▁kauvan":7095,"▁pitävät":7096,"tua.\n":7097,"päätä":7098,"iksen":7099,"ussaan":7100,"ani.":7101,"llista\n":7102,"▁näytti\n":7103,"▁kauhea":7104,"▁löysi":7105,"▁ottivat":7106,"▁kunnioit":7107,"▁armas":7108,"▁ensimmäisen":7109,"▁lähetys":7110,"▁mukanaan":7111,"▁lauanta":7112,"▁välittä":7113,"▁mielestäni":7114,"▁alttarin":7115,"▁paikassa":7116,"kaupung":7117,"▁halveksi":7118,"▁yhdeksän":7119,"dia":7120,"vilä":7121,"iseltä":7122,"oilta":7123,"oida":7124,"▁setä":7125,"▁paul":7126,"▁paista":7127,"▁pakoon":7128,"laul":7129,"▁kiip":7130,"ister":7131,"▁himme":7132,"vän.":7133,"▁työs":7134,"▁työssä":7135,"▁terva":7136,"vits":7137,"matta.\n":7138,"▁laini":7139,"▁tunsi\n":7140,"▁herran,":7141,"▁kävelemään":7142,"▁faraon":7143,"▁lentokon":7144,"inki":7145,"▁sp":7146,"▁vik":7147,"eita\n":7148,"▁ont":7149,"▁seini":7150,"isia.":7151,"toma":7152,"▁kunnon":7153,"paiste":7154,"▁näille":7155,"rad":7156,"▁istunut":7157,"ttiin":7158,"▁vuok":7159,"▁sanoivat:":7160,"▁suva":7161,"upää":7162,"udesta":7163,"toihin":7164,"▁harm":7165,"▁seurata":7166,"▁käskenyt":7167,"ivät,":7168,"▁turvat":7169,"▁pysyt":7170,"▁puku":7171,"▁tuntui\n":7172,"▁tyttö,":7173,"▁puhumaan":7174,"▁pimeässä":7175,"▁ylös,":7176,"▁paskaa":7177,"▁sonjan":7178,"▁uuteen":7179,"▁lempeä":7180,"uuksia":7181,"▁ongel":7182,"▁stefaan":7183,"pään":7184,"ineen,":7185,"kalta":7186,"▁nuka":7187,"esin":7188,"▁kamar":7189,"▁koit":7190,"ko:":7191,"▁olkoot":7192,"▁eb":7193,"▁eero":7194,"▁pimen":7195,"▁haki":7196,"kaana":7197,"▁kaikissa":7198,"▁teit":7199,"▁ereh":7200,"töön":7201,"jä.\n":7202,"▁ajattelee":7203,"▁meta":7204,"▁hyväksy":7205,"▁kuoll":7206,"▁ohim":7207,"▁avona":7208,"▁salin":7209,"▁tänne,":7210,"▁koulun":7211,"▁unohtaa":7212,"▁tilaa":7213,"▁ryhty":7214,"▁virkkoi:\n":7215,"▁alttari":7216,"▁usa:n":7217,"ci":7218,"dun":7219,"naa":7220,"pus":7221,"▁tele":7222,"eskeli":7223,"utta\n":7224,"▁em":7225,"ihin\n":7226,"▁haas":7227,"nyt.\n":7228,"▁alati":7229,"▁kattoo":7230,"▁heiltä":7231,"▁tulvi":7232,"mänä":7233,"asi.":7234,"▁kuulee":7235,"teitä":7236,"uun\n":7237,"▁verho":7238,"▁sävy":7239,"▁halve":7240,"ivät\n":7241,"ästä\n":7242,"myyttä":7243,"▁ruokaa":7244,"▁löyty":7245,"▁hyvinkin":7246,"▁ollessa":7247,"▁nykä":7248,"▁melke":7249,"▁silmiään":7250,"▁ulos.":7251,"▁vaatteet":7252,"▁takaisin.\n":7253,"▁samuli":7254,"▁väräh":7255,"▁tiennyt,":7256,"▁aug":7257,"▁koettanut":7258,"▁tarjosi":7259,"▁harjoitta":7260,"ähdys":7261,"▁aukeni":7262,"▁pehmeä":7263,"▁kappal":7264,"▁viimeksi":7265,"▁höyry":7266,"▁jordan":7267,"juu":7268,"attiin":7269,"▁jolta":7270,"yteen":7271,"▁koe":7272,"▁lavis":7273,"ivin":7274,"▁hevo":7275,"▁isku":7276,"...?":7277,"ist\n":7278,"▁valhe":7279,"▁nouta":7280,"▁vasta\n":7281,"▁kysel":7282,"▁olenn":7283,"▁fe":7284,"että.":7285,"▁pitämään":7286,"▁osoit":7287,"▁esitel":7288,"▁täällä,":7289,"▁tullut\n":7290,"▁välissä":7291,"▁kalpea":7292,"▁töitä":7293,"▁silmäsi":7294,"▁myrk":7295,"▁marcuksen":7296,"▁pohjois":7297,"▁varhain":7298,"▁lähinnä":7299,"jassa":7300,"känsä":7301,"lt":7302,"▁soitta":7303,"llisesta":7304,"▁pila":7305,"etin":7306,"tiä":7307,"▁aku":7308,"ei\n":7309,"marin":7310,"▁kumo":7311,"▁oltiin":7312,"▁saks":7313,"▁maksan":7314,"▁näissä":7315,"isena,":7316,"▁heiko":7317,"▁ano":7318,"imet":7319,"man,":7320,"▁teat":7321,"▁soper":7322,"▁erakko":7323,"▁loh":7324,"▁vuoren":7325,"▁luen":7326,"jani":7327,"▁vann":7328,"▁riih":7329,"▁puolin":7330,"▁:dd\n":7331,"uksia.":7332,"▁usko,":7333,"uttivat":7334,"▁kääntyy":7335,"▁käteen":7336,"▁sisältä":7337,"▁muistanut":7338,"▁metsässä":7339,"▁valtakun":7340,"▁räpp":7341,"▁sydämeni":7342,"danda":7343,"▁pojan,":7344,"▁sukkel":7345,"▁äänettömyys":7346,"mattomana":7347,"▁neuvot":7348,"▁ravinto":7349,"▁litvan":7350,"▁valdemar":7351,"▁epäluulo":7352,"▁pettä":7353,"itis":7354,"sal":7355,"▁auka":7356,"▁vika":7357,"▁sali":7358,"▁saisin":7359,"▁enne":7360,"▁haike":7361,"maan,\n":7362,"▁astua":7363,"kaamme":7364,"▁syvään":7365,"▁palkin":7366,"▁lika":7367,"▁suuta":7368,"keni":7369,"▁lovi":7370,"▁hiekka":7371,"▁päivään":7372,"▁häl":7373,"▁kesänä":7374,"stä,":7375,"▁matkaan":7376,"▁jotain\n":7377,"▁jotakin\n":7378,"▁aapo":7379,"▁pelkkä":7380,"jouk":7381,"▁muutkin":7382,"▁viereen":7383,"▁peittää":7384,"▁aika,":7385,"▁pyydän":7386,"utuvat":7387,"▁mukaan.\n":7388,"issaan.\n":7389,"▁hyöd":7390,"▁kuukauden":7391,"cola":7392,"▁täytynyt":7393,"▁syliinsä":7394,"▁cia:n":7395,"▁tapio":7396,"päällikkö":7397,"▁päinvastoin":7398,"rt":7399,"tettu":7400,"öitä":7401,"▁hul":7402,"ite":7403,"▁ameri":7404,"▁taud":7405,"▁kodin":7406,"ilin":7407,"▁miekka":7408,"ure":7409,"osto":7410,"mia.":7411,"▁sen.":7412,"▁minuut":7413,"▁mitä,":7414,"eetan":7415,"päin.":7416,"uksista":7417,"▁palannut":7418,"köhän":7419,"▁suoja":7420,"▁baa":7421,"▁homo":7422,"▁irv":7423,"▁korpi":7424,"▁harva":7425,"▁verkko":7426,"▁ulottu":7427,"▁muutama":7428,"▁huim":7429,"▁puista":7430,"▁sisäll":7431,"▁tullut,":7432,"▁nyrk":7433,"▁kalp":7434,"▁pikemmin":7435,"▁puuha":7436,"▁kauhu":7437,"▁kadun":7438,"▁tehdä,":7439,"▁takaisin.":7440,"▁huomasin":7441,"▁ulkoma":7442,"▁suomalaisten":7443,"▁rukoil":7444,"▁vuosien":7445,"▁terävä":7446,"▁mataristo":7447,"▁yksitoikko":7448,"missa":7449,"isiko":7450,"än.\n":7451,"mmille":7452,"isiä\n":7453,"kelit":7454,"▁emma":7455,"ot.":7456,"▁pidän":7457,"▁haha":7458,"▁tunteen":7459,"▁suusta":7460,"ttia":7461,"▁luotu":7462,"kan\n":7463,"▁vaiker":7464,"▁taid":7465,"▁peria":7466,"udet":7467,"▁ylp":7468,"▁roo":7469,"▁arva":7470,"▁täyteen":7471,"▁synk":7472,"▁talosta":7473,"▁rantaan":7474,"▁karva":7475,"▁vanhurska":7476,"▁kädellään":7477,"▁murhaa":7478,"ydessä":7479,"▁yksilö":7480,"▁edessä.\n":7481,"▁penja":7482,"▁ulkoa":7483,"ykset":7484,"yksessä":7485,"▁puutte":7486,"▁rinnalla":7487,"▁käynn":7488,"▁ensiksi":7489,"▁sanomalehd":7490,"▁roth":7491,"▁iankaikk":7492,"olla,":7493,"pyö":7494,"sel":7495,"sty":7496,"▁häh":7497,"▁silla":7498,"ma.":7499,"▁taisteli":7500,"▁olga":7501,"▁ex":7502,"lak":7503,"▁maito":7504,"▁raukka":7505,"▁sito":7506,"▁soke":7507,"▁suuhun":7508,"▁nainen,":7509,"peri":7510,"▁vanke":7511,"▁häip":7512,"▁sum":7513,"▁edestä":7514,"▁mieluu":7515,"yn,":7516,"▁suureen":7517,"▁suurten":7518,"▁demok":7519,"uksiin":7520,"▁itseensä":7521,"▁peitti":7522,"▁ainoastaan\n":7523,"▁lauloi":7524,"▁hang":7525,"▁muistat":7526,"▁poikia":7527,"▁päättä":7528,"▁seuraavan":7529,"▁rakenta":7530,"▁ah,":7531,"▁ratsu":7532,"▁kautta,":7533,"▁hämärä":7534,"astuks":7535,"▁saapuivat":7536,"▁näytä":7537,"▁soitto":7538,"▁hillit":7539,"▁pirtissä":7540,"▁asunto":7541,"▁lukenut":7542,"▁tamper":7543,"rn":7544,"sik":7545,"▁q":7546,"ana,":7547,"▁nu":7548,"eltään":7549,"▁siisti":7550,"▁tauko":7551,"▁kamal":7552,"▁kiiltä":7553,"▁hara":7554,"▁muisteli":7555,"▁varust":7556,"▁vanhoja":7557,"▁muualla":7558,"udella":7559,"▁äänellä,":7560,"istivat":7561,"ästi,":7562,"▁nähnyt,":7563,"▁hyvä\n":7564,"▁panee":7565,"▁mäen":7566,"▁kysyä":7567,"▁porko:":7568,"▁purista":7569,"änsä.":7570,"▁tyynen":7571,"▁jussin":7572,"▁ihalainen":7573,"▁ikkuna":7574,"▁varjo":7575,"▁maister":7576,"▁metsänhoita":7577,"▁jännitty":7578,"▁taiteili":7579,"▁vastannut":7580,"ttua":7581,"▁ita":7582,"▁suol":7583,"▁oho":7584,"änä,":7585,"elta\n":7586,"▁simon":7587,"oille,":7588,"▁viid":7589,"vall":7590,"ppua":7591,"▁tumm":7592,"▁kuuden":7593,"pii":7594,"▁erottaa":7595,"emmin,":7596,"▁perusta":7597,"▁pitkin\n":7598,"▁mielin":7599,"▁tehden":7600,"▁iva":7601,"▁helppo":7602,"▁isäntä,":7603,"kää,":7604,"▁kauan,":7605,"▁moko":7606,"▁ruos":7607,"▁epävar":7608,"▁osaksi":7609,"elta.":7610,"▁ollessaan":7611,"▁kuului\n":7612,"▁tuhann":7613,"tynyt.":7614,"▁niiden\n":7615,"▁yksinään":7616,"▁pitkälle":7617,"terin":7618,"▁huolehti":7619,"uja.":7620,"▁suomalais":7621,"▁kärsivä":7622,"▁kynnyks":7623,"mattomia":7624,"▁lattialla":7625,"▁viisas":7626,"▁kertoo":7627,"▁kallion":7628,"▁hirveä":7629,"▁ensimäinen":7630,"▁lyhyesti":7631,"▁olaus":7632,"▁pyyhki":7633,"▁jerusa":7634,"▁aikaisemmin":7635,"järjestel":7636,"▁edestakaisin":7637,"omet":7638,"seen":7639,"viksi":7640,"▁juna":7641,"▁oi,":7642,"tii":7643,"▁ring":7644,"äsin":7645,"oineen":7646,"▁hajaan":7647,"elämän":7648,"▁kärä":7649,"▁alasto":7650,"▁kuulla,":7651,"ysten":7652,"ystä,":7653,"▁heihin":7654,"▁heitä,":7655,"▁teette":7656,"▁pär":7657,"▁vastaan\n":7658,"kann":7659,"▁tottunut":7660,"▁moneen":7661,"▁muuta\n":7662,"▁pitäen":7663,"▁esit":7664,"televan":7665,"▁ainoa,":7666,"vasti,":7667,"▁pääsisi":7668,"itsen":7669,"▁voittaa":7670,"▁tuho":7671,"puole":7672,"▁metsäherra":7673,"▁poikani":7674,"▁säästä":7675,"▁työnsi":7676,"▁kirjoittanut":7677,"▁lyön":7678,"▁ovelle":7679,"▁kauniin":7680,"▁tavoit":7681,"▁taivaassa":7682,"▁sanoin,":7683,"▁tiedätte":7684,"▁ylioppila":7685,"▁uskalla":7686,"▁siunat":7687,"▁hmm\n":7688,"▁hypähti":7689,"▁porstu":7690,"▁luutnan":7691,"▁sofia:":7692,"evat":7693,"käh":7694,"▁kääri":7695,"llisessa":7696,"▁pei":7697,"tille":7698,"uon":7699,"elliset":7700,"vaih":7701,"kuva":7702,"▁tom":7703,"▁touh":7704,"rah":7705,"▁asettu":7706,"▁hylkää":7707,"tan,":7708,"▁tuonut":7709,"aan,\n":7710,"▁lieh":7711,"▁noja":7712,"▁kaikki.":7713,"▁nar":7714,"tunen":7715,"▁luo.":7716,"esiden":7717,"▁vuoti":7718,"▁kohoa":7719,"▁mielettö":7720,"▁teille,":7721,"▁parta":7722,"▁muutoin":7723,"▁yli\n":7724,"▁kuolla":7725,"▁mäki":7726,"▁ainoo":7727,"▁vitu":7728,"umin":7729,"▁hiljalleen":7730,"miehiä":7731,"iseksi\n":7732,"▁eikös":7733,"▁pyöre":7734,"▁mukaan.":7735,"mättömä":7736,"▁tehnyt,":7737,"ksemme":7738,"▁hymähti":7739,"▁vahl":7740,"▁kuullut,":7741,"▁kykene":7742,"▁väkevä":7743,"▁fiil":7744,"▁ovea":7745,"jun":7746,"pul":7747,"▁uk":7748,"▁spa":7749,"isat":7750,"▁otin":7751,"▁pella":7752,"utteli":7753,"eseen.":7754,"estani":7755,"kirk":7756,"▁niitty":7757,"▁pakana":7758,"▁pauli":7759,"teni":7760,"neinä":7761,"▁isää":7762,"▁väri":7763,"▁vastaus":7764,"▁naul":7765,"emmäs":7766,"▁suuttu":7767,"▁levit":7768,"▁vaini":7769,"yttävän":7770,"▁vaikkapa":7771,"kee,":7772,"▁tulemaan":7773,"▁onnellis":7774,"▁veljeni":7775,"▁uskonut":7776,"mätöntä":7777,"▁tappaa":7778,"▁vauhtia":7779,"▁hallitus":7780,"▁uunin":7781,"▁euroopan":7782,"daa":7783,"git":7784,"öön":7785,"▁sto":7786,"▁hurs":7787,"▁mikko":7788,"▁aine":7789,"▁siera":7790,"▁vait":7791,"▁kaukan":7792,"utta.\n":7793,"▁niinhän":7794,"▁laup":7795,"pa,":7796,"ysin":7797,"▁tuntia":7798,"▁teet":7799,"▁puhtaa":7800,"kas,":7801,"▁olisimme":7802,"▁kuluttu":7803,"etta\n":7804,"▁jumalaan":7805,"▁laskea":7806,"▁juon":7807,"▁jannen":7808,"▁turun":7809,"▁kääntää":7810,"▁onnistunut":7811,"▁ohjaa":7812,"▁tuskas":7813,"▁huvi":7814,"▁uhraa":7815,"mista.":7816,"▁nyrkki":7817,"▁tuhatta":7818,"▁avoi":7819,"▁elämäs":7820,"▁vieraita":7821,"▁tajun":7822,"▁viskasi":7823,"▁kysymyksi":7824,"▁hoid":7825,"▁viipyi":7826,"▁ryös":7827,"▁presiden":7828,"▁haudan":7829,"▁huulet":7830,"▁äärimmä":7831,"▁ylitse":7832,"illut":7833,"ätä":7834,"kata":7835,"▁nään":7836,"▁ahta":7837,"▁tappi":7838,"▁kouk":7839,"▁sep":7840,"kse,":7841,"jala":7842,"iha":7843,"▁lauh":7844,"▁lauk":7845,"▁piip":7846,"▁musi":7847,"▁kate":7848,"▁kanaan":7849,"▁lähemmäksi":7850,"▁valois":7851,"tui,":7852,"▁lukuun":7853,"▁sanoen\n":7854,"▁peloitta":7855,"▁minunkin":7856,"▁seurassa":7857,"▁sisään,":7858,"utti\n":7859,"▁poltti":7860,"▁uhra":7861,"▁herraa":7862,"▁pahasti":7863,"▁kansakoul":7864,"▁ystäv":7865,"▁uj":7866,"▁kaksi\n":7867,"▁ulos.\n":7868,"▁palata":7869,"▁katsoivat":7870,"▁unohtanut":7871,"▁vihollinen":7872,"▁sairasta":7873,"▁mökki":7874,"▁vakava":7875,"▁mittaa":7876,"▁opetusla":7877,"▁vaivaa":7878,"▁tarpee":7879,"▁laivan":7880,"▁yhteiskunna":7881,"▁tahansa,":7882,"▁riippuu":7883,"▁miehiä,":7884,"▁upseer":7885,"schil":7886,"▁melkein\n":7887,"▁rothschil":7888,"hö":7889,"ner":7890,"pil":7891,"sas":7892,"▁än":7893,"iseen,":7894,"▁p.":7895,"tila":7896,"▁all":7897,"▁app":7898,"▁aini":7899,"▁aatte":7900,"▁siipi":7901,"oillaan":7902,"▁kuih":7903,"▁onki":7904,"▁kape":7905,"kiv":7906,"kohan":7907,"ily":7908,"mmin\n":7909,"vat,\n":7910,"tul":7911,"uttaa\n":7912,"▁olut":7913,"▁kiittää":7914,"▁lamppu":7915,"▁rakkaan":7916,"▁tulla\n":7917,"▁päältä":7918,"▁päämäär":7919,"▁alen":7920,"hda":7921,"▁ihas":7922,"▁olevat":7923,"istit":7924,"▁puhkesi":7925,"jat\n":7926,"kka,":7927,"▁varusta":7928,"tuneita":7929,"▁hiili":7930,"▁nähneet":7931,"▁pantu":7932,"▁veit":7933,"▁ihanaa":7934,"▁lapsensa":7935,"▁uhkasi":7936,"▁tarvitsi":7937,"▁kädestä":7938,"▁lausu":7939,"▁pihan":7940,"jaan.\n":7941,"▁näköinen":7942,"▁järjestä":7943,"▁kauniisti":7944,"▁nopea":7945,"▁inarin":7946,"▁odottanut":7947,"▁kaatui":7948,"▁raivo":7949,"▁kamala":7950,"▁ylhäältä":7951,"▁kimppuun":7952,"▁this":7953,"deli":7954,"dässä":7955,"kkel":7956,"sin\n":7957,"sta,":7958,"uja,":7959,"iso":7960,"▁tuttava":7961,"utuksen":7962,"▁jaka":7963,"li\n":7964,"tiin\n":7965,"▁kup":7966,"ilo":7967,"▁niemen":7968,"ksi,\n":7969,"lahti":7970,"▁en,":7971,"▁tomm":7972,"miä,":7973,"▁sensi":7974,"▁tii":7975,"▁ihan\n":7976,"▁paloi":7977,"▁läheni":7978,"▁puhtaan":7979,"▁kerralla":7980,"▁kuulemma":7981,"▁sillä,":7982,"▁hämmen":7983,"▁suits":7984,"▁fas":7985,"▁rovastin":7986,"▁mies\n":7987,"ilah":7988,"▁mitenkään":7989,"▁tervet":7990,"▁aikonut":7991,"▁reuna":7992,"▁surke":7993,"▁suuri\n":7994,"▁tuntuivat":7995,"tynyt\n":7996,"▁rintaan":7997,"▁pohjan":7998,"▁huolta":7999,"▁ottakaa":8000,"▁paikkaan":8001,"▁apula":8002,"▁mahdollisi":8003,"▁näkevin":8004,"▁mökin":8005,"▁pinna":8006,"▁saakka,":8007,"▁esiinty":8008,"▁syntymä":8009,"▁asema":8010,"▁aatel":8011,"subi":8012,"riko":8013,"tavat":8014,"issani":8015,"▁olleen":8016,"▁lut":8017,"▁alla,":8018,"use":8019,"▁ethän":8020,"▁enkelit":8021,"▁kyllin":8022,"▁torj":8023,"▁tiu":8024,"tansa,":8025,"▁alue":8026,"väl":8027,"hdin":8028,"▁sinulta":8029,"▁sitä.":8030,"▁varoit":8031,"▁erot":8032,"▁taika":8033,"▁päivää,":8034,"▁vanhin":8035,"▁heti,":8036,"▁oikeata":8037,"▁pelästy":8038,"▁taas,":8039,"▁rou":8040,"▁syntyy":8041,"▁kaupp":8042,"▁ympärille":8043,"▁yhdellä":8044,"▁mahdotonta":8045,"▁kadonnut":8046,"▁hetkenä":8047,"▁molemmin":8048,"▁taivasta":8049,"▁ruis":8050,"▁laajen":8051,"▁äitini":8052,"▁hyvää,":8053,"▁kirjoitus":8054,"ikirj":8055,"▁mite":8056,"▁kustan":8057,"▁sytytti":8058,"▁peto":8059,"▁sananjul":8060,"▁raskaasti":8061,"▁toisiinsa":8062,"▁kohtelia":8063,"▁säpsähti":8064,"▁agricola":8065,"jj":8066,"olta":8067,"▁hurska":8068,"▁pät":8069,"liina":8070,"attomasti":8071,"eskel":8072,"▁ait":8073,"uone":8074,"▁sillon":8075,"▁lake":8076,"▁toisesta":8077,"▁senvuo":8078,"tan\n":8079,"istuneet":8080,"▁lähelle":8081,"▁varoitta":8082,"▁suksi":8083,"▁eläin":8084,"vinnyt":8085,"▁meil":8086,"▁ennen,":8087,"▁halusi":8088,"▁gusta":8089,"▁mets":8090,"▁jälkeen\n":8091,"▁virran":8092,"▁venhe":8093,"▁viheri":8094,"▁painosta":8095,"▁pyhää":8096,"atiiv":8097,"▁voitte":8098,"llään.":8099,"tomana":8100,"▁pihla":8101,"▁edes\n":8102,"▁xd\n":8103,"▁elämää,":8104,"▁oletteko":8105,"▁lyödä":8106,"▁mahdollis":8107,"▁ryp":8108,"▁suunnit":8109,"▁tupakoi":8110,"▁valmiina":8111,"▁saunan":8112,"▁lepäsi":8113,"▁ainoatakaan":8114,"▁vallesmanni":8115,"▁sananjulista":8116,"kyyn":8117,"läh":8118,"poi":8119,"pua":8120,"ennut":8121,"isil":8122,"▁juut":8123,"▁otetaan":8124,"un.\n":8125,"ikin.":8126,"▁kam":8127,"▁kajahti":8128,"ulun":8129,"▁salainen":8130,"uran":8131,"▁lakki":8132,"iver":8133,"pahan":8134,"▁hauk":8135,"▁tullen":8136,"▁jokainen,":8137,"▁jäb":8138,"▁järki":8139,"▁kylässä":8140,"eet.\n":8141,"▁muurin":8142,"olon":8143,"udu":8144,"▁käytä":8145,"▁hyvällä":8146,"▁poika\n":8147,"▁tuumi":8148,"▁wo":8149,"▁seuraava":8150,"▁sundeli":8151,"▁ylösnous":8152,"kkur":8153,"attomat":8154,"issut":8155,"▁vieraat":8156,"▁seisomaan":8157,"▁lääh":8158,"▁rangaistus":8159,"▁aikoinaan":8160,"▁pöydällä":8161,"▁sanomalehti":8162,"▁saarnaa":8163,"▁smokin":8164,"▁ringi":8165,"kistä":8166,"pro":8167,"rus":8168,"▁..":8169,"▁testa":8170,"▁nost":8171,"▁aina,":8172,"▁sepä":8173,"▁olin\n":8174,"▁astuu":8175,"▁iltaa":8176,"▁kuula":8177,"ukseni":8178,"essaan.":8179,"▁puhei":8180,"▁nap":8181,"▁kuuluva":8182,"ettaisiin":8183,"▁nuot":8184,"▁korvat":8185,"▁fu":8186,"▁harmaan":8187,"▁särky":8188,"pojan":8189,"▁jatko":8190,"▁kirkkoon":8191,"otti\n":8192,"▁käsiinsä":8193,"▁kehoit":8194,"▁aikaa\n":8195,"▁penni":8196,"▁tarkoin":8197,"▁veljeks":8198,"▁anteeksian":8199,"talon":8200,"▁tarkkaa":8201,"kkansa":8202,"▁kihla":8203,"▁valmiiksi":8204,"▁käärme":8205,"▁jep\n":8206,"▁tukahd":8207,"ds":8208,"misestä":8209,"pyh":8210,"ruo":8211,"▁star":8212,"kah":8213,"▁nuku":8214,"ikana":8215,"ko?":8216,"▁vira":8217,"▁viemään":8218,"▁sai\n":8219,"▁tokko":8220,"▁hammas":8221,"▁rauni":8222,"▁käytti":8223,"▁tieh":8224,"▁tielle":8225,"▁alistu":8226,"▁jumali":8227,"▁useita":8228,"▁kulkenut":8229,"▁perille":8230,"▁mein":8231,"▁parhaa":8232,"▁pelas":8233,"▁korkein":8234,"mojen":8235,"▁miehet,":8236,"uksi.":8237,"▁turhaa":8238,"▁jossakin":8239,"▁minua.\n":8240,"ili\n":8241,"▁vilpit":8242,"▁kotia":8243,"▁tyyni":8244,"pinta":8245,"oon.\n":8246,"▁lehmä":8247,"mielinen":8248,"▁sormi":8249,"issään,":8250,"▁ryhtyä":8251,"▁markkaa":8252,"▁emmekä":8253,"▁siirty":8254,"▁onneksi":8255,"▁tulevaisuuden":8256,"▁alkavat":8257,"▁syvälle":8258,"▁seurasivat":8259,"▁luostari":8260,"▁ennät":8261,"▁kapteeni":8262,"▁säily":8263,"▁kiusaa":8264,"▁sanaakaan":8265,"▁rauke":8266,"▁nyyhk":8267,"▁henkensä":8268,"▁insinö":8269,"cke":8270,"pähän":8271,"▁quot":8272,"▁soitti":8273,"▁murs":8274,"▁johti":8275,"▁taut":8276,"tuvan":8277,"▁viile":8278,"pai":8279,"pagan":8280,"▁näin,":8281,"▁tuomaan":8282,"uksesta,":8283,"issaan.":8284,"▁hie":8285,"▁kohotta":8286,"▁bit":8287,"▁peri":8288,"▁yksino":8289,"▁särki":8290,"▁tavalla,":8291,"▁kenonen":8292,"▁isäsi":8293,"▁annoin":8294,"▁pyyd":8295,"puolella":8296,"▁keskeltä":8297,"▁miljar":8298,"▁hyvänsä":8299,"▁iltapäivä":8300,"▁kaksikymmentä":8301,"mppan":8302,"back":8303,"▁täydell":8304,"▁lahjo":8305,"▁hirvittä":8306,"▁huonosti":8307,"tuneesti":8308,"▁ruske":8309,"▁yllät":8310,"▁pietarin":8311,"▁kolmannen":8312,"▁ruhtin":8313,"ruu":8314,"rissa":8315,"utaa":8316,"▁poin":8317,"eten":8318,"▁alle,":8319,"▁tavannut":8320,"▁olikaan":8321,"mmin,":8322,"kin...":8323,"▁eteen.\n":8324,"uhri":8325,"▁kivää":8326,"▁lautta":8327,"ivä":8328,"▁heini":8329,"▁ole.":8330,"eliä":8331,"▁kylv":8332,"▁suussa":8333,"▁sittenkään":8334,"▁ihmisille":8335,"▁taipu":8336,"▁piteli":8337,"joukon":8338,"▁itsestä":8339,"▁hyväks":8340,"▁mies.\n":8341,"miseksi":8342,"▁osoitti":8343,"▁arvaa":8344,"▁kart":8345,"uutta.":8346,"▁tavar":8347,"▁annoimme":8348,"onsa.":8349,"utui\n":8350,"atio":8351,"▁viljel":8352,"llään.\n":8353,"▁pihalle":8354,"jia,":8355,"▁joutuneet":8356,"▁armon":8357,"▁kasvoillaan":8358,"▁muisti,":8359,"▁hymyile":8360,"▁mahtava":8361,"▁vahvisti":8362,"▁englanti":8363,"▁sotke":8364,"▁avioliitto":8365,"▁kauppias":8366,"▁kainal":8367,"▁leevilä":8368,"bur":8369,"imman":8370,"keita":8371,"yl":8372,"enee":8373,"▁spe":8374,"etyn":8375,"kaat":8376,"▁ja...\n":8377,"estaan,":8378,"▁taso":8379,"▁kuvat":8380,"▁karjan":8381,"▁ei!":8382,"▁saisivat":8383,"▁poista":8384,"▁kaikk":8385,"▁tumman":8386,"▁teo":8387,"▁saapi":8388,"▁vastakka":8389,"▁nahka":8390,"▁suotta":8391,"▁taida":8392,"▁pitemmä":8393,"▁levä":8394,"uudella":8395,"old":8396,"▁teitä,":8397,"▁parhaan":8398,"uuteni":8399,"uksen.\n":8400,"▁asiaan":8401,"tini":8402,"▁käymään":8403,"▁henkeä":8404,"▁synkkä":8405,"etty.":8406,"▁poika.\n":8407,"▁hiljaista":8408,"▁portti":8409,"▁we":8410,"▁what":8411,"▁ehkä\n":8412,"▁oisko":8413,"▁pilven":8414,"▁auttoi":8415,"▁sydämessään":8416,"▁ääreen":8417,"▁puhuivat":8418,"▁ikkunasta":8419,"▁näkemään":8420,"▁keskenään":8421,"▁muodosta":8422,"▁kasvojen":8423,"▁korkean":8424,"▁kävellä":8425,"▁joulu":8426,"▁väsynyt":8427,"▁sopii":8428,"▁entäs":8429,"▁saatuaan":8430,"▁mestari":8431,"▁aaronin":8432,"▁elänyt":8433,"▁aabraham":8434,"▁mielenkiinto":8435,"▁äijä":8436,"▁ylösnousem":8437,"minen\n":8438,"p\n":8439,"wa":8440,"▁arkki":8441,"▁aito":8442,"▁sillo":8443,"aam":8444,"ellessaan":8445,"mmän":8446,"mmät":8447,"rii":8448,"oso":8449,"▁hakee":8450,"▁kämmen":8451,"▁ilos":8452,"▁väisty":8453,"▁kuuma":8454,"▁tulossa":8455,"▁tulette":8456,"▁kerra":8457,"▁keropi":8458,"▁suojel":8459,"kkii":8460,"▁vuotta,":8461,"▁maata,":8462,"▁sinähän":8463,"roks":8464,"▁ääneen":8465,"ettuja":8466,"ia.\n":8467,"▁synn":8468,"vää\n":8469,"▁vaahto":8470,"▁che":8471,"▁esiko":8472,"vasti\n":8473,"▁sateen":8474,"ilivat":8475,"▁pyl":8476,"▁rep":8477,"oog":8478,"ussa.":8479,"▁sieluun":8480,"▁kehit":8481,"▁ympärill":8482,"▁hänellä\n":8483,"dien":8484,"▁kellään":8485,"▁samanlainen":8486,"▁kannattaa":8487,"▁omituisesti":8488,"▁toivoa":8489,"▁semmoisen":8490,"▁joudu":8491,"▁herättää":8492,"▁kerrassaan":8493,"▁suojeli":8494,"päänsä":8495,"tin\n":8496,"vot":8497,"▁kasta":8498,"tie":8499,"▁häneen,":8500,"▁on!":8501,"ihän":8502,"isensa":8503,"uksessa,":8504,"▁lähestyi":8505,"▁tulem":8506,"▁yhtyi":8507,"▁jäbä":8508,"▁vanho":8509,"kunsa":8510,"▁riistä":8511,"▁oikealle":8512,"▁ide":8513,"▁muute":8514,"ettynä":8515,"▁karh":8516,"vasti.":8517,"mmalle":8518,"▁ymmärsi,":8519,"▁mootto":8520,"▁lainaa":8521,"▁pyhim":8522,"llisesti.":8523,"▁pahat":8524,"▁päivällä":8525,"▁vastasi:":8526,"▁miltä":8527,"▁kotiin.":8528,"▁köyhän":8529,"▁kaksin":8530,"▁ehdottomasti":8531,"▁kapina":8532,"▁leikkiä":8533,"▁kiitos,":8534,"▁raamatun":8535,"▁keksintö":8536,"▁kertonut":8537,"▁kyennyt":8538,"ltään":8539,"nät":8540,"iski":8541,"kalli":8542,"silla":8543,"mainen":8544,"▁kaj":8545,"isimp":8546,"kumo":8547,"emään,":8548,"vii":8549,"▁ilves":8550,"▁katon":8551,"▁katoa":8552,"▁tunne,":8553,"▁valm":8554,"▁äkä":8555,"tunn":8556,"▁itseäni":8557,"▁asia,":8558,"▁korr":8559,"mor":8560,"▁seurannut":8561,"ettyään":8562,"ltä.\n":8563,"oita.":8564,"▁kuolee":8565,"▁aikoihin":8566,"llinen.":8567,"▁juhani":8568,"▁tieten":8569,"▁herraa,":8570,"▁missä\n":8571,"▁vihel":8572,"▁teki\n":8573,"▁kunnian":8574,"▁nelj":8575,"▁sukukunn":8576,"▁korkealla":8577,"▁pojat,":8578,"▁rohkea":8579,"▁pirttiin":8580,"▁takana,":8581,"▁sirma":8582,"▁neljäkymmentä":8583,"▁hautaja":8584,"▁armahta":8585,"▁viittasi":8586,"▁sosial":8587,"▁kiiruhti":8588,"mäs":8589,"tina":8590,"vin\n":8591,"▁kark":8592,"▁kovan":8593,"▁ett":8594,"▁tuottaa":8595,"▁alha":8596,"▁katkona":8597,"tui\n":8598,"kas\n":8599,"▁voimi":8600,"▁vuoksi,":8601,"▁mieleni":8602,"udan":8603,"etta.\n":8604,"▁puolta":8605,"ved":8606,"ensä\n":8607,"unut,":8608,"▁herra\n":8609,"▁siis,":8610,"▁vanhemmat":8611,"▁päästy":8612,"▁kohtasi":8613,"▁päästä\n":8614,"▁tietämättä":8615,"▁kaiva":8616,"kattu":8617,"▁silmät\n":8618,"mättömästi":8619,"▁ilman\n":8620,"vuot":8621,"▁värise":8622,"▁antoivat":8623,"▁koulu":8624,"▁asettaa":8625,"▁varten.":8626,"▁ymmärrä,":8627,"▁uskalsi":8628,"▁oudon":8629,"▁morsia":8630,"▁leveä":8631,"▁oispa\n":8632,"▁farao":8633,"▁järjestel":8634,"eja":8635,"na,":8636,"▁sisimm":8637,"▁pelä":8638,"▁punn":8639,"▁t.":8640,"as.":8641,"ikuu":8642,"ikku":8643,"sia,":8644,"▁silit":8645,"▁taha":8646,"ää.\n":8647,"ilan":8648,"▁vieti":8649,"▁toisti":8650,"▁hajo":8651,"▁päälle,":8652,"▁syvi":8653,"▁kas,":8654,"kasin":8655,"▁ollut.\n":8656,"perin":8657,"▁päivi":8658,"janta":8659,"▁sanokaa":8660,"▁ajatella,":8661,"vän.\n":8662,"▁oikeutta":8663,"▁puolesta,":8664,"▁harja":8665,"että\n":8666,"jaa.":8667,"televa":8668,"▁ainoan":8669,"▁odota":8670,"▁ymmärtää,":8671,"ettiin.\n":8672,"▁rauhaa":8673,"▁vihre":8674,"eita.\n":8675,"mpiä":8676,"varti":8677,"▁puuh":8678,"kula":8679,"oilla.":8680,"itten\n":8681,"▁äiti\n":8682,"▁ajatteli,":8683,"▁merkitsee":8684,"▁tajusi":8685,"▁toimittaa":8686,"▁aikoo":8687,"▁tilaisuutta":8688,"▁saapuu":8689,"▁kohden,":8690,"▁vallankumo":8691,"▁tylsä":8692,"▁porvari":8693,"▁energi":8694,"▁gustaf":8695,"jus":8696,"suun":8697,"▁moit":8698,"▁pensa":8699,"▁pistää":8700,"ate":8701,"▁lemp":8702,"elkaa":8703,"▁joi":8704,"kol":8705,"istaan.":8706,"keä,":8707,"▁maista":8708,"▁pouta":8709,"▁raho":8710,"▁isä\n":8711,"eeta":8712,"isteri":8713,"▁hei,":8714,"▁itkeä":8715,"▁herttua":8716,"▁tultu":8717,"▁tulos":8718,"▁tultua":8719,"kös":8720,"▁naisia":8721,"esi\n":8722,"▁luv":8723,"▁aikaan,":8724,"▁pelast":8725,"▁ennen.":8726,"▁sisään.":8727,"▁rans":8728,"▁uskotte":8729,"▁chan":8730,"▁esin":8731,"mittaa":8732,"▁vanhemm":8733,"▁tietenkin":8734,"▁pitää\n":8735,"▁lisäänty":8736,"▁rakkaut":8737,"eensa.\n":8738,"▁samassa\n":8739,"▁ahven":8740,"▁joskus\n":8741,"▁menevät":8742,"▁korkealle":8743,"▁oppinut":8744,"▁vetäytyi":8745,"▁sotila":8746,"▁lyri":8747,"▁vienyt":8748,"▁tihe":8749,"▁kasvanut":8750,"▁kysäisi":8751,"▁välkky":8752,"▁laupe":8753,"▁sensijaan":8754,"des":8755,"da,":8756,"gra":8757,"t.\n":8758,"kainen":8759,"atonta":8760,"ikansa":8761,"▁sig":8762,"uuks":8763,"▁kaula":8764,"killä":8765,"▁ys":8766,"▁enimmä":8767,"ehtin":8768,"▁mait":8769,"vier":8770,"kaal":8771,"rkka":8772,"▁valtaan":8773,"▁kertaa\n":8774,"iset.":8775,"▁silkki":8776,"▁luoksesi":8777,"▁maalais":8778,"▁perman":8779,"mensa":8780,"ynsä":8781,"▁vähin":8782,"▁ulot":8783,"▁yksin,":8784,"▁jantu":8785,"televät":8786,"▁päästi":8787,"▁päässeet":8788,"▁leivän":8789,"▁kehitys":8790,"▁konrad":8791,"▁tuhoa":8792,"▁antti,":8793,"▁annamme":8794,"▁edessän":8795,"uttuaan":8796,"▁vaihto":8797,"▁kristi":8798,"▁toisilleen":8799,"▁kauniit":8800,"▁ihmeellinen":8801,"kuivat":8802,"▁seurakunta":8803,"▁parhaillaan":8804,"▁vapaamuu":8805,"▁outoa":8806,"▁katkera":8807,"▁alkuperä":8808,"▁tohtorin":8809,"▁vaatii":8810,"▁porkan":8811,"▁piilo":8812,"järjesty":8813,"▁histori":8814,"▁tukhol":8815,"▁vapaamuura":8816,"reen":8817,"t?\n":8818,"uinen":8819,"tahto":8820,"issi":8821,"▁jala":8822,"li,":8823,"esk":8824,"▁af":8825,"eria":8826,"oita\n":8827,"elleen,":8828,"▁oliks":8829,"lla,\n":8830,"▁vietti":8831,"tomat":8832,"ja!":8833,"uhan":8834,"▁kima":8835,"▁kimal":8836,"▁kyyd":8837,"▁sena":8838,"▁palja":8839,"▁sitäkin":8840,"▁neg":8841,"▁neli":8842,"▁sola":8843,"▁eroa":8844,"kan,":8845,"▁koho":8846,"▁tietänyt":8847,"▁siitä.":8848,"▁aidan":8849,"▁oikein,":8850,"▁läik":8851,"▁muuttuu":8852,"▁verä":8853,"jaa.\n":8854,"▁esittää":8855,"▁vittuu":8856,"▁polttaa":8857,"▁nuorena":8858,"▁laulaa":8859,"▁jalkojen":8860,"▁tahdoin":8861,"▁puhua,":8862,"▁pilvi":8863,"valtaa":8864,"kat,":8865,"▁joita\n":8866,"▁pimeys":8867,"▁kiihty":8868,"soona":8869,"▁hyökkää":8870,"▁toisille":8871,"▁luulee":8872,"▁mielenliik":8873,"mppani":8874,"▁sieppasi":8875,"▁taivaanran":8876,"huoneen":8877,"▁tarvitsee":8878,"▁kestänyt":8879,"▁ammatti":8880,"▁huomiota":8881,"▁piippu":8882,"▁hedelmä":8883,"▁aalto":8884,"▁eteenpäin.":8885,"▁sammal":8886,"▁yhtaikaa":8887,"ca":8888,"out":8889,"ta,\n":8890,"▁pisto":8891,"▁jaa,":8892,"▁lunta":8893,"eily":8894,"llakin":8895,"teh":8896,"ri:":8897,"▁rap":8898,"▁saamaan":8899,"▁saada\n":8900,"▁kaikkivalti":8901,"▁silmään":8902,"▁bu":8903,"▁sanoja,":8904,"▁lepp":8905,"▁riita":8906,"▁kokoa":8907,"▁aall":8908,"▁itseäsi":8909,"▁ketään,":8910,"▁selkänsä":8911,"▁fin":8912,"konen":8913,"▁särk":8914,"tyi.":8915,"▁huumaa":8916,"▁gi":8917,"▁maailmaa":8918,"▁käänny":8919,"▁sieluni":8920,"▁nousi,":8921,"▁muori":8922,"▁pöytään":8923,"▁hänestä\n":8924,"▁kiinni.":8925,"▁pimeyden":8926,"▁ääretön":8927,"▁paikan":8928,"▁kuiskaa":8929,"▁äänellä.\n":8930,"▁tyttären":8931,"▁oppia":8932,"▁ruumii":8933,"▁seinän":8934,"▁jonnekin":8935,"▁laupi":8936,"▁piipp":8937,"▁egypti":8938,"▁ikuinen":8939,"▁syksyllä":8940,"▁maantien":8941,"▁astri":8942,"▁vänttinen":8943,"▁kevyt":8944,"g\n":8945,"mb":8946,"isan":8947,"issän":8948,"kalle":8949,"attar":8950,"el\n":8951,"eltaan":8952,"onsa,":8953,"usin":8954,"▁sadan":8955,"▁eukko":8956,"▁syks":8957,"▁tees":8958,"▁menneet":8959,"▁noista":8960,"läisiä":8961,"▁luot":8962,"▁luet":8963,"▁piti\n":8964,"▁leikka":8965,"▁katsellen":8966,"▁aio":8967,"▁ääni,":8968,"▁sela":8969,"▁saatiin":8970,"rea":8971,"▁vaarin":8972,"▁pystyy":8973,"▁kaupunkia":8974,"▁jalko":8975,"▁avoin":8976,"▁metsään":8977,"▁pitkä,":8978,"▁kauhun":8979,"▁löydä":8980,"▁kadulle":8981,"▁semmone":8982,"▁nuoria":8983,"▁loppuu":8984,"▁auki,":8985,"▁näköisen":8986,"▁katselivat":8987,"▁merkke":8988,"▁lahja":8989,"▁tarkasti":8990,"▁kohden.\n":8991,"▁viikkoa":8992,"▁ajatellut,":8993,"▁äskeinen":8994,"tekijö":8995,"▁kuullessaan":8996,"uhriksi":8997,"▁viehät":8998,"▁hämmäst":8999,"▁kuutamo":9000,"▁sukupolv":9001,"▁hätkähti":9002,"▁barbara":9003,"▁vahlberg":9004,"▁ilvesmat":9005,"tona":9006,"ör":9007,"▁quo":9008,"▁hot":9009,"▁hinn":9010,"▁oksa":9011,"▁omien":9012,"▁psy":9013,"▁ja...":9014,"saan":9015,"▁jo,":9016,"▁räh":9017,"▁paksu":9018,"▁ydin":9019,"vainen":9020,"▁saf":9021,"uhrin":9022,"mani":9023,"▁puhuneet":9024,"▁saatana":9025,"▁sout":9026,"▁kylään":9027,"▁luja":9028,"▁häp":9029,"htia":9030,"▁itseänsä":9031,"▁tarmo":9032,"▁pelo":9033,"▁muutti":9034,"vaaran":9035,"teen\n":9036,"▁lasket":9037,"▁gt":9038,"▁get":9039,"▁kuitenkin,":9040,"▁kuohu":9041,"▁karkasi":9042,"▁syön":9043,"mistaan":9044,"▁pahoin":9045,"▁vastasi\n":9046,"▁melko":9047,"▁entis":9048,"▁jollakin":9049,"▁lehmän":9050,"▁huolen":9051,"▁kunnioitta":9052,"▁paikkaa":9053,"▁elämä,":9054,"▁sillee":9055,"▁apte":9056,"▁pakotta":9057,"▁malka":9058,"▁vissii":9059,"▁myöhään":9060,"▁puhdista":9061,"▁mites":9062,"▁yksinäinen":9063,"▁harjoit":9064,"▁kohden.":9065,"▁jenny":9066,"▁onnettomuus":9067,"▁sisältö":9068,"▁todellisuudessa":9069,"▁eteenpäin,":9070,"▁armeijan":9071,"▁runsaasti":9072,"▁kullikell":9073,"hallit":9074,"▁geor":9075,"▁mieluummin":9076,"du":9077,"inkin":9078,"▁ski":9079,"▁soittaa":9080,"▁jäh":9081,"llasi":9082,"▁oppil":9083,"▁oitis":9084,"▁pist":9085,"▁jalan":9086,"timme":9087,"▁leen":9088,"saar":9089,"▁jope":9090,"siä":9091,"▁amer":9092,"ustan":9093,"▁kuri":9094,"▁mita":9095,"ksia,":9096,"ihin.":9097,"kukka":9098,"▁tol":9099,"▁toin":9100,"▁toinen,":9101,"vi\n":9102,"▁asteli":9103,"▁tiiä":9104,"▁väitti":9105,"▁tuolle":9106,"▁saappa":9107,"▁vastausta":9108,"▁kuulem":9109,"▁perust":9110,"▁häiri":9111,"▁pitkiä":9112,"▁itsekään":9113,"mpan":9114,"▁arn":9115,"▁arpa":9116,"isia.\n":9117,"▁ylits":9118,"▁uneksi":9119,"▁hänelle.":9120,"▁esik":9121,"▁liikkuu":9122,"▁porvar":9123,"▁jääkä":9124,"▁vihki":9125,"▁luonte":9126,"▁jumalaa,":9127,"kkaa\n":9128,"▁sinua\n":9129,"▁lentä":9130,"▁liikaa":9131,"▁paikkaan,":9132,"▁ettekä":9133,"▁luulen,":9134,"▁merkitsi":9135,"isella\n":9136,"▁haluaa":9137,"▁rakennettu":9138,"▁hyppää":9139,"▁mass":9140,"▁tullu":9141,"▁tiesin":9142,"▁egypt":9143,"▁jöi":9144,"▁nimeä":9145,"▁saatanan":9146,"▁totuutta":9147,"mut":9148,"nsä,":9149,"it.":9150,"▁luh":9151,"mata":9152,"usto":9153,"▁ets":9154,"▁vimpa":9155,"teke":9156,"ot.\n":9157,"▁eniten":9158,"ose":9159,"mär":9160,"▁hänen,":9161,"▁kaiken\n":9162,"▁kävin":9163,"▁iltaan":9164,"▁kaikkiaan":9165,"▁kerjä":9166,"▁sov":9167,"▁suud":9168,"▁koston":9169,"▁sup":9170,"ole":9171,"ässä.\n":9172,"▁hänet.":9173,"▁maailmaan":9174,"llinen.\n":9175,"▁lainkaan":9176,"▁tuuhe":9177,"▁jäähyvä":9178,"▁tunnet":9179,"mpi,":9180,"▁tunsivat":9181,"▁tätä\n":9182,"▁pikkut":9183,"kuussa":9184,"▁poikke":9185,"▁löyd":9186,"▁lentää":9187,"▁toivotta":9188,"▁huomas":9189,"uja\n":9190,"▁joutua":9191,"▁kiihkeä":9192,"▁aukea":9193,"▁kilpaa":9194,"▁siirtyi":9195,"astuksen":9196,"vyyttä":9197,"▁syleil":9198,"▁kaunis,":9199,"▁kallio":9200,"▁syvemmä":9201,"▁joutuivat":9202,"▁koivun":9203,"▁aarne":9204,"▁viivyt":9205,"▁kotona,":9206,"▁velho\n":9207,"▁tippuu,":9208,"▁ongelma":9209,"▁nyökä":9210,"jille":9211,"nell":9212,"puut":9213,"vinä":9214,"vasi":9215,"▁kää":9216,"isemm":9217,"▁mot":9218,"▁näänty":9219,"▁alla.":9220,"▁olitte":9221,"▁komea":9222,"▁sekoit":9223,"lle:\n":9224,"▁olkka":9225,"▁villa":9226,"ulo":9227,"oten":9228,"▁kiet":9229,"▁kimm":9230,"▁kipeä":9231,"▁kyky":9232,"▁pizz":9233,"miestä":9234,"▁sanon,":9235,"▁tietty":9236,"▁josta\n":9237,"▁pääsivät":9238,"▁väittää":9239,"▁alus":9240,"▁heila":9241,"▁siner":9242,"▁te\n":9243,"▁saaren":9244,"▁olisihan":9245,"▁maalle":9246,"▁kosto":9247,"kuntaa":9248,"▁tehdään":9249,"yttäen":9250,"▁olla.\n":9251,"▁olen,":9252,"▁aivo":9253,"malla\n":9254,"ulla,":9255,"▁lasku":9256,"▁uskoo":9257,"uuden\n":9258,"vitse":9259,"▁katsokaa":9260,"▁seisoa":9261,"▁kirkkaa":9262,"▁puv":9263,"▁sulhas":9264,"▁vihlo":9265,"▁jätkä":9266,"▁inter":9267,"llään\n":9268,"▁kansojen":9269,"▁näki\n":9270,"▁rintaansa":9271,"▁pohjat":9272,"▁istuutui":9273,"▁kukaan\n":9274,"▁joitakin":9275,"▁mennä\n":9276,"▁sieltä\n":9277,"▁vapaasti":9278,"▁minut\n":9279,"▁ensinkään":9280,"▁kristuksen":9281,"▁velje":9282,"▁posket":9283,"▁koetin":9284,"▁ensimmäisenä":9285,"▁ruots":9286,"kkua":9287,"▁poikas":9288,"▁johtuu":9289,"▁ymmärrän":9290,"▁lähteneet":9291,"▁miettin":9292,"▁liisu":9293,"▁oikee":9294,"▁millainen":9295,"▁loukkaan":9296,"▁nice\n":9297,"▁mahdollisimman":9298,"▁nuottani":9299,"▁negatiiv":9300,"bb":9301,"ia,":9302,"llll":9303,"▁hiki":9304,"▁peili":9305,"etyt":9306,"itu":9307,"▁lukka":9308,"▁autu":9309,"ellessa":9310,"ksen\n":9311,"▁tältä":9312,"vahd":9313,"▁enemm":9314,"▁kiitti":9315,"▁kaiku":9316,"▁kaikkin":9317,"▁syliin":9318,"imp":9319,"▁lippu":9320,"▁varma,":9321,"▁erota":9322,"▁kuulostaa":9323,"▁maalla":9324,"joo":9325,"ittämään":9326,"▁ele":9327,"▁lasken":9328,"▁huume":9329,"▁typer":9330,"▁ots":9331,"▁ohj":9332,"▁tunnust":9333,"attava":9334,"▁toisen\n":9335,"▁tarvitta":9336,"ystä.\n":9337,"▁poikani,":9338,"▁päättää":9339,"▁seuraavat":9340,"▁tästä\n":9341,"▁myll":9342,"▁taistelun":9343,"▁hallitsi":9344,"▁tapana":9345,"▁onneton":9346,"▁muitakin":9347,"▁sopus":9348,"▁tiedät,":9349,"▁näytän":9350,"▁kulkemaan":9351,"toon.\n":9352,"▁tullessaan":9353,"▁lyhyen":9354,"▁viettää":9355,"▁helsinki":9356,"▁helsingin":9357,"▁käsivarr":9358,"▁retk":9359,"▁harryn":9360,"▁jäseni":9361,"▁etelän":9362,"▁kappale":9363,"▁kanssasi":9364,"▁valehteli":9365,"▁kanerva":9366,"▁pannaan":9367,"▁ontrei":9368,"bu":9369,"anen":9370,"▁piste":9371,"▁ruv":9372,"▁tamm":9373,"▁onkaan":9374,"▁ka...":9375,"▁viita":9376,"vain":9377,"otte":9378,"▁kiu":9379,"▁lammas":9380,"▁matal":9381,"miin,":9382,"▁haba":9383,"▁haukot":9384,"▁hemm":9385,"käsi":9386,"▁kärk":9387,"▁isäänsä":9388,"▁minähän":9389,"eeksi,":9390,"...!\n":9391,"▁iho":9392,"▁katum":9393,"▁tunki":9394,"▁olevaa":9395,"ukseen.":9396,"▁voimansa":9397,"▁vieläkö":9398,"▁koht":9399,"▁päivästä":9400,"▁blo":9401,"▁perään":9402,"▁vannon":9403,"▁mieleen,":9404,"▁ovatko":9405,"▁työtä,":9406,"▁tykkää":9407,"▁tervo":9408,"vasti.\n":9409,"▁vitusti":9410,"▁nuorten":9411,"▁syömään":9412,"ussa\n":9413,"▁mieliala":9414,"▁näkyv":9415,"oja.\n":9416,"▁kansain":9417,"▁vilho":9418,"▁valtakunta":9419,"▁minkälainen":9420,"ette,":9421,"▁lensi":9422,"▁räis":9423,"▁propagan":9424,"▁kesällä":9425,"yydestä":9426,"▁maahan.\n":9427,"▁hyödy":9428,"▁linna":9429,"▁posk":9430,"▁huomaamatta":9431,"mässä,":9432,"▁ootte":9433,"▁ystävällisesti":9434,"▁tiedätkö,":9435,"▁valitti":9436,"▁väsyne":9437,"▁kävely":9438,"parta":9439,"▁ystävänsä":9440,"▁tuostakin":9441,"▁morsian":9442,"▁tahdotte":9443,"▁pelastaa":9444,"▁jaakobin":9445,"▁vaalea":9446,"▁tukah":9447,"▁mahtoi":9448,"▁juhannus":9449,"▁profeetta":9450,"▁vaiheessa":9451,"▁yleisö":9452,"▁video":9453,"eista":9454,"ira":9455,"jui":9456,"keen,":9457,"n\n":9458,"▁mee":9459,"▁puk":9460,"▁von":9461,"▁viska":9462,"unto":9463,"▁lempi":9464,"▁ruma":9465,"laisia,":9466,"▁niin.\n":9467,"▁niin,\n":9468,"▁niinkö":9469,"▁pim":9470,"mä,":9471,"▁tuvassa":9472,"▁ilmaa":9473,"▁iske":9474,"▁minä.":9475,"▁alun":9476,"vär":9477,"▁like":9478,"▁teks":9479,"▁soro":9480,"▁voimme":9481,"upuol":9482,"teita,":9483,"▁ovat,":9484,"isataa":9485,"▁ylpeä":9486,"▁verka":9487,"▁ranska":9488,"▁veera":9489,"▁osoittaa":9490,"▁merkin":9491,"▁liikkei":9492,"▁tavata":9493,"essään\n":9494,"▁aikansa":9495,"oo,":9496,"ook":9497,"▁virh":9498,"▁takaa,":9499,"onsa\n":9500,"▁war":9501,"▁yöt":9502,"▁tullut.":9503,"▁tyyne":9504,"▁alas.":9505,"▁oman\n":9506,"▁työnsä":9507,"▁paikalle":9508,"▁suomalaisen":9509,"▁hienon":9510,"▁läpi\n":9511,"▁tapansa":9512,"▁käytö":9513,"▁kummas":9514,"▁jännityks":9515,"▁iisakin":9516,"▁siunattu":9517,"▁tarvii":9518,"▁joutuvat":9519,"▁eräässä":9520,"▁lakkasi":9521,"pohja":9522,"▁kähe":9523,"▁kumarsi":9524,"▁ursula":9525,"▁numer":9526,"▁veitikka":9527,"f\n":9528,"get":9529,"jet":9530,"kr":9531,"uissa":9532,"▁kissa":9533,"äni.":9534,"▁nero":9535,"▁koken":9536,"koo":9537,"▁paita":9538,"▁paasto":9539,"tua,":9540,"ulta\n":9541,"▁saukko":9542,"▁niin!":9543,"▁kiuk":9544,"▁rahoja":9545,"▁kaikkina":9546,"▁tuun":9547,"▁syste":9548,"istellen":9549,"ukset\n":9550,"▁valoa":9551,"▁neito":9552,"telet":9553,"telun":9554,"▁kylm":9555,"▁suupiel":9556,"▁suola":9557,"kani":9558,"▁luvan":9559,"▁bis":9560,"▁beet":9561,"▁jonku":9562,"▁tämäkin":9563,"▁fir":9564,"▁isänmaan":9565,"▁herrain":9566,"koon\n":9567,"▁juoma":9568,"▁uskoa,":9569,"▁sellaiset":9570,"▁mutisi":9571,"▁odo":9572,"▁kuolin":9573,"ensa\n":9574,"▁uhrin":9575,"▁portin":9576,"▁käsiään":9577,"▁vilkas":9578,"▁ystävät":9579,"▁herrani":9580,"▁antaisi":9581,"▁antamaan":9582,"▁silmistä":9583,"▁hiljaa\n":9584,"▁sydämestä":9585,"▁vapautta":9586,"▁kaupungista":9587,"▁pysähd":9588,"kseni,":9589,"▁unohti":9590,"▁huusivat":9591,"▁kannat":9592,"▁järjest":9593,"▁omituista":9594,"ekkää":9595,"▁orpo":9596,"▁siirr":9597,"▁ilmeisesti":9598,"▁leski":9599,"▁jaksaa":9600,"▁välittänyt":9601,"▁berg":9602,"▁vyötä":9603,"▁kirsti":9604,"▁päinvasto":9605,"▁äärettömän":9606,"▁vähääkään":9607,"▁halunnut":9608,"▁eversti":9609,"▁iivari":9610,"▁habaku":9611,"e.\n":9612,"ii\n":9613,"ov":9614,"puus":9615,"▁ime":9616,"entä":9617,"▁stor":9618,"and":9619,"▁jukka":9620,"▁omen":9621,"▁vuole":9622,"ikin.\n":9623,"▁alais":9624,"yttiin":9625,"▁pauka":9626,"isii":9627,"neli":9628,"▁kyp":9629,"▁piel":9630,"▁näit":9631,"emättä":9632,"▁heikin":9633,"▁tius":9634,"▁tiellä":9635,"▁alvi":9636,"▁vastapäätä":9637,"tunsa":9638,"▁tietä,":9639,"▁kulken":9640,"▁katsonut":9641,"▁daa":9642,"▁dar":9643,"tunut.\n":9644,"▁toisina":9645,"vernö":9646,"rit,":9647,"▁ohi,":9648,"▁naurun":9649,"▁näkyviin":9650,"▁vaimoni":9651,"▁lähtemään":9652,"▁luona,":9653,"▁vilkaisi":9654,"▁jalkansa":9655,"▁heitä\n":9656,"▁enemmän\n":9657,"▁aikaa.":9658,"▁emännä":9659,"mielisesti":9660,"▁nuori,":9661,"issään.\n":9662,"kaisee":9663,"▁kärsimy":9664,"▁naap":9665,"▁rupesivat":9666,"▁näkisi":9667,"▁palasivat":9668,"▁rannisto":9669,"▁ensimäisen":9670,"▁mietin":9671,"▁tapahtunut,":9672,"▁utuni":9673,"▁pidettiin":9674,"▁hillitä":9675,"▁tuntien":9676,"▁kuunnellut":9677,"▁sanomaleh":9678,"▁useimm":9679,"▁ryyp":9680,"▁korjaa":9681,"vainajan":9682,"▁erinomaisen":9683,"johtaja":9684,"▁kärsinyt":9685,"▁rämsän":9686,"▁vimpari:":9687,"for":9688,"k\n":9689,"ld":9690,"mina":9691,"nös":9692,"son":9693,"vässä":9694,"▁jee":9695,"▁muha":9696,"▁tse":9697,"▁tru":9698,"kauden":9699,"estaan.":9700,"▁kaja":9701,"ilta\n":9702,"▁papit":9703,"ulu":9704,"▁make":9705,"▁maan,":9706,"paino":9707,"▁toh":9708,"mäinen":9709,"empaan":9710,"▁sen.\n":9711,"▁astuivat":9712,"▁mitättö":9713,"▁altti":9714,"vä\n":9715,"päin\n":9716,"▁katu":9717,"ukselle":9718,"▁palkan":9719,"issa,\n":9720,"▁päre":9721,"▁suorana":9722,"▁kuulen":9723,"ni\n":9724,"▁boo":9725,"jär":9726,"▁eläköön":9727,"▁muua":9728,"▁keven":9729,"▁elät":9730,"▁synny":9731,"▁synkkänä":9732,"▁kuolleet":9733,"▁viimeistä":9734,"umpi":9735,"▁tavallinen":9736,"päähän":9737,"▁lapsuuden":9738,"▁rakastanut":9739,"eensä,":9740,"▁wit":9741,"▁opin":9742,"▁kohtalon":9743,"▁minkätähden":9744,"▁vanha\n":9745,"▁lehdet":9746,"▁räppä":9747,"▁kömpel":9748,"▁huoles":9749,"▁huolellisesti":9750,"▁hyväntahto":9751,"▁täytyi\n":9752,"▁kaksitoista":9753,"▁nykya":9754,"metsä":9755,"▁parhaat":9756,"▁äänettöminä":9757,"▁lähetä":9758,"▁tanssia":9759,"▁sisään.\n":9760,"kkinä":9761,"▁kaulaan":9762,"▁säilyttää":9763,"▁nauttia":9764,"▁kokonainen":9765,"kaupungin":9766,"▁synnytti":9767,"▁ryypp":9768,"▁paloniemen":9769,"opp":9770,"rista":9771,"rassa":9772,"▁sch":9773,"▁meen":9774,"▁pri":9775,"uto":9776,"▁ara":9777,"eitä\n":9778,"elleen.":9779,"maista":9780,"▁kars":9781,"iltana":9782,"▁sait":9783,"▁eino":9784,"ria,":9785,"neeksi":9786,"▁piikki":9787,"den\n":9788,"isena\n":9789,"▁pomm":9790,"▁he,":9791,"▁tuut":9792,"▁syvästi":9793,"▁tuotiin":9794,"▁kuusen":9795,"▁hermo":9796,"▁yhen":9797,"▁soker":9798,"halu":9799,"▁lumen":9800,"▁persoona":9801,"ment":9802,"▁totta\n":9803,"▁haluut":9804,"▁käsitti":9805,"▁vedet":9806,"illa.":9807,"▁omaksi":9808,"▁irta":9809,"▁pihaan":9810,"▁piru":9811,"▁räp":9812,"▁tanssin":9813,"▁voimakkaasti":9814,"▁kilomet":9815,"▁kolmekymmentä":9816,"▁mustat":9817,"▁ryhmä":9818,"▁kokonaan\n":9819,"▁toimitti":9820,"▁vuorostaan":9821,"▁keskuspan":9822,"▁yrittänyt":9823,"▁kasvoja":9824,"▁huomannut,":9825,"▁näytel":9826,"▁nöyry":9827,"▁avio":9828,"▁kaikkea,":9829,"▁alakulois":9830,"vainaja":9831,"▁viihd":9832,"▁ruuna":9833,"▁olkapä":9834,"▁ankarasti":9835,"▁olleet\n":9836,"▁abbedissa":9837,"▁pellava":9838,"▁enimmäkseen":9839,"fer":9840,"fuc":9841,"htelivat":9842,"lehti":9843,"sta\n":9844,"▁sisa":9845,"iskun":9846,"▁hut":9847,"▁oks":9848,"▁tik":9849,"itun":9850,"▁alle.":9851,"▁vaell":9852,"uss":9853,"▁koeta":9854,"koko":9855,"▁park":9856,"tu.":9857,"toinen":9858,"ty\n":9859,"▁mag":9860,"▁marj":9861,"palo":9862,"mia.\n":9863,"▁rajan":9864,"▁muista,":9865,"käyn":9866,"▁nyt.":9867,"▁hyvit":9868,"▁tuoh":9869,"isesta,":9870,"▁katua":9871,"▁nekin":9872,"▁vastata":9873,"ni.\n":9874,"▁luvun":9875,"kylän":9876,"▁koskee":9877,"▁muuta,":9878,"isine":9879,"▁aap":9880,"▁aamia":9881,"ynny":9882,"▁läpit":9883,"▁rouvan":9884,"▁käynyt,":9885,"▁arvat":9886,"▁enää,":9887,"▁turmi":9888,"ästä.":9889,"▁käännyt":9890,"▁jatkui":9891,"ikkoja":9892,"▁huvil":9893,"ukat":9894,"▁pyytänyt":9895,"laiseen":9896,"▁elämän\n":9897,"▁painu":9898,"▁anttia":9899,"▁lause":9900,"▁kiinni.\n":9901,"▁mukaansa":9902,"▁levittä":9903,"▁toivoi":9904,"▁kuulia":9905,"▁huusi:\n":9906,"▁huomaa,":9907,"▁lattialle":9908,"vyys":9909,"▁sietä":9910,"opetta":9911,"▁taivaasta":9912,"▁tarkoita":9913,"▁oppila":9914,"▁kurkkuun":9915,"▁itselleni":9916,"kkejä":9917,"▁tiesivät":9918,"▁sopiva":9919,"▁säteili":9920,"▁liiton":9921,"▁pellon":9922,"▁kangas":9923,"▁kengät":9924,"joiden":9925,"nus":9926,"orj":9927,"▁kän":9928,"▁kre":9929,"taisi":9930,"▁stu":9931,"isuo":9932,"istyi":9933,"▁j.":9934,"▁ora":9935,"▁n.":9936,"▁ja,":9937,"atko":9938,"itsin":9939,"unke":9940,"▁lon":9941,"▁jou":9942,"▁aa\n":9943,"▁vai\n":9944,"▁ryssä":9945,"ella,\n":9946,"▁on...":9947,"▁seko":9948,"▁niity":9949,"kin...\n":9950,"uttaa.":9951,"▁eteen.":9952,"▁eveli":9953,"osin":9954,"▁mac":9955,"isestä\n":9956,"▁liper":9957,"▁herttu":9958,"▁tekon":9959,"pital":9960,"▁menisi":9961,"▁luo.\n":9962,"▁hiukset":9963,"▁päiviä":9964,"▁siitä,\n":9965,"▁toimen":9966,"isin.":9967,"▁teiltä":9968,"▁keuh":9969,"▁nuoti":9970,"joen":9971,"mpänä":9972,"▁työttö":9973,"▁hyvä.":9974,"▁herralle,":9975,"ilaiset":9976,"▁sellaiseen":9977,"▁ehtoo":9978,"uutta.\n":9979,"▁käsiin":9980,"▁kehoitti":9981,"▁voito":9982,"▁kysyi\n":9983,"ittava":9984,"▁herranne":9985,"▁maailman\n":9986,"▁tanss":9987,"▁äidille":9988,"▁kiersi":9989,"▁toverit":9990,"▁ratkaise":9991,"▁veljet":9992,"▁pysähtyivät":9993,"▁väsyneen":9994,"▁askelin":9995,"▁vissiin":9996,"▁kirkonkyl":9997,"▁tilaisuus":9998,"▁hoitaa":9999},"merges":["▁ \n","i n","e n","▁ k","t a","▁ s","a n","i s","▁ j","l l","▁ h","▁ m","t ä","▁ o","ä n","▁ p","▁ v","▁ t","e t","k a","u t","▁ n","▁j a","l i","a s","a t","i t","u n","t i","▁ l","e s","i k","s a",". \n","e l","▁j o","▁h än","s i","▁ a","e i","u o","e r","▁s i","u u","a a","o n","▁v a","▁ r","o i","e ll","y t","m a","u s","▁ ta","▁o li","▁k u","e en","▁o n","▁k a","s ä","k i","▁k o","ä ä","▁s e","k o","i l","ll a","k s","m m","▁n i","▁p a","v at","k in","ll e","ä än","ä t","▁ y","t u","ut ta","▁ et","is i","▁m i","▁o l","▁ tä","▁ ei","▁v i",". .","u l","t o","v a","t e","j a","▁s a","in ä","is ta","k si","k e","▁ e","in en","i h","l a","u r","ll ä","▁ni in","o t","u h","▁ en","ä h","▁k i","▁m utta","r i","t en","k u","t y","▁l a","as ta","i v","o s","n e","▁k y","▁k un","e h","▁et tä","ä s","▁m a","p a","▁t o","a ,","▁ku in","▁p i","m i","▁s an","▁n ä","o in","▁h a",", \n","m ä","d en","ta a","ka an","is en","▁p o","▁hän en","ma an","e m","▁s en","▁r a","y ö","▁h e","v i","▁m u","▁ an","s e","el ä","in a","▁m in","r a","▁ka ik","p p","▁t u","▁ as","k ä","v ät","▁jo ka","tä ä","▁k ä","▁t i","▁jo s","u k","▁p ää","ka a","n yt","▁ il","▁ is","▁mi tä","▁s y","as sa","▁n yt","▁m inä","▁h y","▁v ä","e e","ta n","ell ä","▁t uo","is tä","v an","▁a l","▁k uu","v ä","h d","is es",".. .","ell a","p ä","y s","▁ ih","mm e","▁k at","i tä","o it","▁k an","▁t un","i m","ll ut","▁ol e","r j","is t","m an","u ks","a an","u i","ell e","▁h ei","▁ it","▁pa l","ta an","▁l äh","r k","▁ li","▁s in","▁h er","d än","▁s it","▁t e","▁t ul","▁va l","uo l","is sa","es sa","▁si tä","y y","u a","es sä","p i","ik ä","? \n","▁p uh","▁n e","▁ ä","▁s aa","▁m en","tu i","▁n o","▁h uo","▁k as","ka s","▁y h","as ti","▁kaik ki","t el","▁ja \n","▁j ä","e li","us ta","m at","n a","▁p ä","▁v asta","m än","r v","j at","in \n","▁k er","in ,","▁s o","k ka","▁ky l","▁o llut","h a","h an","is et","▁v oi",": \n","ll oin","u ma","▁s uu","! \n","t ti","as i","r an","▁si l","d ä","▁va r","k ö","l ä","▁ol isi","▁sit ten","▁ih m",".. .\n","i r","▁vi elä","is sä","k en","ises ti","▁n a","ta ,","▁s uo","t un","es tä","▁ er","t ö","▁l uo","n ut","▁j uma","k an","en i","▁va ik","ik si","te li","e mm","▁l o","k ki","▁kuu l","▁ us","es i","▁si llä","p er","▁v uo","▁jo t","k oi","n i","▁ta i","l o","▁h i","▁ko h","y h","▁ti e","▁l u","▁pä iv","▁m aa","k y","▁ b","ti in","▁ku l","▁s inä","j ä","▁p er","j an","e ksi","j en","▁oli vat","▁ko s","▁san oi","▁v an","▁h ä","▁san o","▁p it","▁si itä","▁k es","s sa","▁s u","e et","it en","a \n","m aa","▁l e","k un","▁ elä","u p","▁kat s","ö n","s tä","m e","▁jo n","ik e","l ta","▁t oi","▁va in","k ään","▁r i","n en","h än","▁si lloin","r in","▁a i","▁m uu","es ta","▁a jat","is in","tä än","uu d","is ten","m en","v än","t ei","▁va an","n ä","▁ko ko","▁e d","▁mi el","o l","▁tu li","▁m at","▁jo ta","u d","▁m e","▁t eh","een ,","▁a a","tan ut","lle ,","▁a ina","ku in","▁jot ka","ä ,","v in","▁tä mä","en \n","y n","r o","▁hän tä","▁h et","yt tä","a .","▁m yö","h ti","p e","▁o vat","▁t ei","▁la p","et ta","▁it se","▁si inä","▁pa r","on a","▁e ikä","▁k e","▁o ike","h o","i ta","▁n uo","is a","▁ ään","▁o lla","an ,","m ään","an sa","y i","is ti","▁hei dän","m ät","▁m ei","u ut","uks en","▁p uol","r s","uu s","▁ta r","an \n","ne et","▁as i","in ö","▁ky s","▁l ä","i ,","t oi","▁h o","▁p el","s sä","ll een","▁ol en","▁ta as","t in","▁mitä än","t ta","▁ i","v o","▁v äh","▁y l","▁tä ä","▁h el","▁vä inö","▁s el","▁ :","▁kyl mä","mm ä","ää r","▁ko r","l k","m o","ks en","j o","m p","i \n","▁si ellä","i den","▁mi eh","in o","u un","ll is","▁suu r","it tä","▁min un","ä \n","et tu","▁kas per","el tä","▁ f","s in","▁: d","▁vaik ka","▁kylmä lä","▁kylmälä :","l an","▁h il","▁ d","▁jon ka","ks een","▁a iv","▁mu ut","▁t ot","os sa","▁ha r","m assa","ö y","h in","▁ ik","▁v er","▁ky llä","▁r o","in n","et ti","▁ ul","v e","▁en nen","en sä","s an","▁si ih","▁t yö","▁ki rj","▁ma r","▁j uu","▁se ur","äs sä","tä ,","u lle","▁y ks","v aa","k on","▁kä y","u ksi","▁is än","▁ta h","▁m on","▁ei vät","äs ti","ik o","▁a r","▁s ä","▁it s","t uu","▁oli \n","▁tä yt","i lle","▁et tei","▁n äh","i a","ma lla","un ut","isi a","▁ha l","▁k aa","▁kan ssa","▁en ää","▁ el","▁k äs","▁hy vä","▁her ra","▁h en","▁väinö :","▁po is","▁siih en","▁al koi","▁muu ta","et tä","▁juma la","it ti","j aa","▁s is","▁sa at","l e","t een","▁y li","▁mi es","u lla","▁va i","▁sy n","▁m ikä","▁vi er","▁ un","tun ut","▁:d \n","h e","ko on","▁ol et","k er","ke a","▁hän elle","r e","as to","▁l as","d a","ta \n","▁ta l","ot ta","sa ,","▁ra h","ty i","▁hän \n","d ät","im e","m is","▁p an","it i","▁aiv an","ke e","k ää","kin ,","t on","▁h uu","▁j uo","▁r an","▁v e","▁ta pa","in .","an a","h ta","▁pal j","▁hän et","▁kuin ka","▁j an","en ,","▁j es","▁ka u","▁ g","p o","yt ti","▁us ko","▁pi tä","v ää","to m","▁v aa","os ta","i ka","▁sin un","il a","un a","iv ät","▁myö s","▁ku iten","oi ka","o a","▁t y","et ty","▁tul e","▁si is","▁t ur","▁k uo","▁o s","▁s ella","▁sa an","▁ c","▁j ul","inen ,","▁p e","ut ti","▁vi ime","▁e h","kin \n","▁n ik","▁tä män","▁k ut","▁ni itä","▁tul ee","▁m iten","uu den","▁sa i","▁ es","▁m er","m it","▁m ä","i lla","▁yh tä","ista ,","▁jes se","▁m ut","▁m et","▁niin kuin","▁t er","li t","v en","tel e","▁a ino","tu a","u si","▁o t","▁maa il","v it","ja ,","▁a rv","äs tä","▁jo ku","is to","ik ka","▁en si","k us","uk ko","▁ka r","▁se kä","▁ker ran","l tä","▁v el","▁y mmä","▁palj on","e \n","▁to is","ur s","v asti","k el","m ma","▁tä ssä","▁pi en","▁k ään","oi ta","m pä","▁o o","▁v it","▁jos sa","▁tä n","an .","v er","▁p ys","▁van h","▁ko l","än ä","▁ih an","▁k ät","lla ,","u ko","▁t yt","u utta","▁o d","pp i","▁ki r","u m","mm en","r it","em pi","▁ymmä r","i d","▁y mpä","▁kats o","▁li ik","▁to d","la inen","v el","▁juu ri","un n","▁on n","▁il m","▁ja t","u ta","s ta","▁ta va","essä än","a .\n","p ää","▁o h","▁k uol","p aa","een .","▁k en","▁ka un","▁tää llä","▁se is","▁a ik","▁is ä","▁m o","▁s at","▁lap s","ell en","▁ka up","▁po l","▁jä lk","▁ai ka","in .\n","yt y","▁min ua","▁ki rk","▁ra kas","k ko","i li","ot ti","▁nuo r","▁l uu","m y","▁s yö","▁kos ka","en sa","et tiin","ik ko","▁pää s","ll inen","▁r uo","▁v oin","ik s","▁p y","n o","mat ta","▁kaa r","▁l ö","▁t us","▁h u","h den","m in","▁yh ä","▁v as","▁j uh","▁r e","▁kas v","▁ uh","d e","▁p oika","▁lo p","▁s ur","▁ti et","ä .","▁pal o","▁la ul","o o","▁on \n","▁la in","▁suu ri","een sä","oit ta","▁an n","us sa","ik ki","▁v o","tä nyt","▁kys y","▁ra uh","ksi ,","▁e pä","een \n","▁nä in","▁na ur","▁juma lan","▁vi r","essa an","▁hil ja","▁sin ne","▁p u","▁ma an","▁o sa","▁sis ä","lle .","▁mi eli","m ista","aa ,","▁hy vin","▁s ul","▁po r","it se","▁palo :","▁t uu","is tu","h on","p pa","ik ö","▁her r","▁nä ky","it si","asta an","ik in","▁väh än","▁pi tää","u ka","▁p yy","▁ta ka","▁jan ne","ta r","et ,","▁sy dä","el ta","▁mat ti","▁niin ,","▁m issä","in g","k sa","▁j ää","▁hänen \n","▁si el","la is","▁vä li","on sa","ut ui","ll isen","ist el","▁ w","on ,","▁va im","▁min ulle","▁saan ut","▁v en","▁kuiten kin","maan ,","▁vi h","▁elä män","▁y ö","▁pa in","▁p yh","▁kä si","▁ä iti","▁aa m","▁il o","isi in","i p","▁h an","▁o ll","▁tu llut","▁va ll","is e","▁j ät","▁l ei","kki ä","▁o p","▁tun n","vat \n","▁kaup un","us t","▁koh ta","s än","lla \n","▁ole van","▁läh te","▁vä l","▁ ...","on \n","▁l is","it s","▁läh ti","▁il ona","lle \n","ll isesti","▁kos kaan","lla an","vat ,","ei ta","at i","▁n y","▁tapa h","▁eh kä","es ti","m pi","▁k eh","lle .\n","yt tää","▁mei dän","▁tun tui","v ästi","▁luo n","o ja","▁to inen","▁vasta an","▁p ur","▁r uu","▁ in","▁o ma","▁ympä ri","▁pa h","▁kan sa","er i","▁rah n","asto :","▁rahn asto:","utta a","es ty","▁v oit","p u","▁mu ista","va r","een .\n","a, \n","▁m un","mi eh","uk ku","an i","▁tun si","▁ei \n","▁ik ään","▁ka l","▁kuin \n","▁te ki","▁kuul ui","ka si","mi a","▁y hd","mm in","▁tä tä","ut u","▁tei dän","▁k on","▁v il","▁kys yi","▁päiv ä","kin .","▁juma l","rk ki","▁ja l","eh ti","▁pää stä","is eksi","▁ta hd","▁kaik en","ll ään","it o","pp u","k ei","ll i","pä iv","▁hei tä","▁ko ti","ll ista","▁t uh","▁y stä","▁ki in","▁nä mä","emm än","to man","ty nyt","▁an tti","▁kat se","▁an na","ut ,","kaan ,","▁sa malla","n een","▁no us","▁ uud","at ta","b ä","▁vasta si","▁kan s","▁ta lo","▁to isen","it ta","▁m el","▁tun te","emm in","ä si","än sä","v eli","▁ta rv","isi ä","p uol","▁tyt tö","is een","▁puh u","▁a v","▁nä ki","▁ esi","▁en t","o si","ys tä","▁kes k","▁p ik","▁nä ytti","▁tuo n","ö s","▁ni i","o ,","ell een","▁e ikö","▁r in","▁ ir","ke in","▁met sä","▁t ut","▁tie tä","a lla","▁ka i","▁ni iden","r ä","it y","os ti","▁kä d","▁her ran","▁tah to","ksi .","▁ uu","sa \n","▁sa l","▁ra kka","taan ,","is it","▁t yy","u den","va an","▁mutta \n","a r","i j","sa .","▁po h","▁että \n","▁val ta","▁voin ut","▁as ti","a l","▁hän ellä","inen \n","k kaa","▁jos ta","▁jul u","vi a","▁la us","▁huo ne","▁ku ka","at ti","▁an ta","it tää","▁ma hd","maan .","jä bä","▁ u","▁siitä ,","▁tot isesti","i .","▁p uu","et \n","▁ihm is","äh ti","uo li","as t","tä n","▁lap si","▁julu jäbä","▁ol in","▁yks in","▁m ur","▁p ih","▁tän ne","▁h aa","ista \n","▁sil mi","▁r as","▁e li","la :","n an","r si","▁b urs","▁burs \n","▁päiv än","▁sa la","▁a ur","▁no usi","k uu","▁po ik","▁m iksi","▁het i","p in","▁s ää","▁us e","▁o is","u va","in i","▁m uo","▁p öy","▁min kä","▁jä l","▁pää t","▁pi r","e ,","taa \n","u v","y d","ään ,","▁seur aa","▁o to","▁p il","uk ka","▁h ur","▁ta n","o r","is ty","▁ikään kuin","▁is tu","▁se \n","ta .","ke ä","▁ä lä","c k","asta ,","▁en emmän","▁is tui","▁oike in","▁ka ksi","▁van ha","va l","e es","▁ku kaan","p an","▁pit kä","▁jälk een","r y","us ,","▁k oi","▁niin \n","▁kut en","mm i","n es","ol as","▁ul os","▁ed es","▁ka uh","mi es","▁m äär","▁nik ke","▁mi lloin","▁nik olas","ku un","o on","▁a ut","ka t","▁l öy","▁ai kaa","▁hei lle","ja an","r ö","▁sin ua","▁te ke","k ul","▁lain e\n","▁ x","▁jo ita","▁täyt yy","it ty","oi lla","▁al as","d i","▁r up","assa ,","e ks","ises ta","▁ka d","▁y ksi","▁e män","r aa","▁pi eni","▁val ti","j i","▁pa rkki","▁s ti","et te","▁si mo","▁he v","▁l en","▁on ko","▁jo lla","j än","▁l eh","ell ut","n y","c ker","▁m istä","maan .\n","▁men i","▁o tti","lle et","▁teh dä","ih in","▁t yh","▁tä stä","▁sil m","▁j us","o ista","ä .\n","el e","▁jot ta","▁k ell","▁men nä","o \n","tä \n","▁hän estä","on en","▁parkki la:","pp il","ul ta","▁m ik","▁an taa","▁kiin ni","▁r un","to \n","t er","llä ,","▁o man","▁sti cker","▁p yö","▁tä hän","▁mu kaan","▁si v","aan ,","▁san on","▁ed essä","▁hen g","r ä\n","▁sin ulle","ot taa","▁het ken","▁hil jaa","mi el","▁sil mät","▁si eltä","▁va at","▁ki ir","▁suo men","▁tu lla","▁r ä","sä ,","ma r","▁ni m","ises sa","ut tu","▁le v","▁sticker \n","▁ka h","▁k ö","▁se mm","▁p en","▁maail man","▁li i","▁jota in","▁tan s","oit ti","tä vä","tää ,","▁saa da","mät tö","il e","m asta","m inen","i va","▁lö rs","it ten","▁jat koi","k kä","elle ,","▁ä id","istä ,","▁vi hd","▁hei dät","uk an","uks et","▁h uol","h er","▁t ö","mm an","▁pi me","▁lä rä\n","▁sydä m","▁toi v","issa ,","▁s uh","▁tie dä","▁elä m","▁s un","et i","s t","▁pi an","▁taka isin","tel ee","▁vihd oin","d in","aa \n","maan \n","▁voi ma","at ,","▁il man","een sa","▁ta a","▁nuo ri","▁m ol","▁et een","▁kun ni","▁huo m","u ja","▁so r","l in","ll en","▁sa massa","▁muut en","u a,","▁sil mä","ke li","ra an","▁va ih","▁ih a","▁s iksi","▁sa man","▁a j","▁yh te","▁on ,","▁teh nyt","▁pe kka","▁va pa","▁sy dän","▁tuo lla","▁tar ko","▁o tta","▁se ,","la iset","o ta","▁tar t","d an","▁vi e","▁tal on","▁ ukko","kan a","▁p uoli","▁yl ös","et tö","▁h uud","tä .","▁p una","▁ol em","▁pa ri","k ona","▁ho r","h aa","▁ta iv","▁het k","▁r u","▁aino astaan","▁m y","h taa","ka l","▁olet te","▁min ut","ksi .\n","▁min ulla","▁kul ki","u ,","ell a,","v uo","k k","▁ äär","ks e","▁l aa","▁jo ut","▁a jan","▁sa m","▁ki er","▁koh ti","▁jo hon","▁r aa","▁ta istel","▁kut s","si ,","▁sil män","m er","n on","▁a la","▁ ikä","▁vä r","mme ,","▁tei lle","▁ul ko","▁päiv änä","▁kaupun g","a ta","r at","▁m il","▁ äs","us ti","lla .","▁näh dä","p ui","▁sa ma","ty y","▁puh ui","o is","v et","▁kä vi","▁seis oi","to a","isen \n","oi hin","▁pa ik","▁an toi","▁sy y","▁vit tu","▁jo lloin","r en","▁lo pp","m pa","▁to ver","▁sen \n","r ki","▁työ n","u li","▁ki ih","pä in","▁p ro","▁pik ku","▁en sin","▁hy v","▁ole mme","▁hy vän","kin .\n","▁py sä","▁kun \n","▁tie d","ka r","h i","▁tä llä","▁ko ul","ne ,","ell is","isen a","▁pa la","t te","▁ti en","▁kuu li","▁et te","▁hy m","▁kats oi","▁uu si","el in","ks eni","vi ä","▁pit k","taan .","▁ä it","on i","▁kuul u","ll an","▁ker taa","▁elä mä","mm at","sa .\n","▁a u","▁hy vää","▁jota kin","i ä","▁väh ä","em ään","▁ku un","issa an","▁un o","▁ra ken","▁o on","▁täyt yi","▁as et","k it","▁kan san","▁a h","▁j y","ul a","ää ,","il ta","▁an ni","▁il ta","▁lap pa","▁p as","▁pit i","▁kirj oit","▁isän tä","e ta","issä än","▁ar m","nyt ,","la isten","h to","l en","▁te kee","▁n el","▁ik kun","▁mo os","▁to ista","kö ön","as ,","▁ot taa","is ka","▁t il","▁k il","▁ha ll","ö t","▁pa ika","▁il ma","▁h ir","▁k r","isi vat","ot tu","▁is ra","kas ta","▁tah ton","▁kes ä","▁n ukku","in sä","▁mar c","a hti","▁huu si","s o","lk ää","▁vi rk","▁val ko","▁kuul uu","mi in","▁jä lleen","▁ihm iset","▁mar tti","▁kau an","y ks","asi ,","▁nä kö","i .\n","ja \n","▁jus si","▁ko hd","▁saa r","estä än","b er","▁vi ho","▁jos kus","▁al kaa","yy d","vi en","essa ,","▁maa han","▁mat ka","▁mieh en","▁kol me","▁h yö","te eksi","▁ä kkiä","▁r at","▁ei hän","k kaan","▁sa ir","▁pä in","▁l in","llä \n","▁si lle","un eet","▁asi a","▁a li","▁la it","isi ,","▁to iset","▁ko tiin","un ta","ma l","▁its ensä","▁a p","▁hev os","ei den","▁mel kein","▁n ur","e a","▁kan n","▁m usta","▁suo ma","een a","ka is","ei tä","ks an","mit u","▁hi en","▁saat toi","isi \n","▁suur en","is y","▁l yö","ks y","g a","▁po li","ys ti","▁vel j","▁j än","▁p un","▁ka utta","tui vat","▁jä rj","▁o mitu","▁kaar lo","▁tä lla","en .","▁l yh","▁pa ppi","▁mieh et","▁mahd o","▁kun nes","▁tuo ta","▁lä pi","p it","▁to isi","▁o v","▁ni istä","▁r yh","▁su ku","▁tod ella","▁kuol e","▁kä rsi","▁mon ta","o lla","▁ .","▁p os","▁so ta","isen ä","▁aa v","▁joka \n","kaan .","ään \n","▁t os","▁p uut","▁ma rk","▁se lit","un sa","▁l an","nut ,","▁pys ty","m ys","▁se li","▁kaun i","em p","k ut","▁ma ri","un i","em an","▁use in","▁ky n","ellä ,","▁ihm e","▁ko et","▁la mmi","▁pal veli","▁od otta","▁kö yh","▁lammi :","▁mi hin","▁hen ki","tom asti","▁p aa","▁jo o","▁ka ks","ään sä","▁men ee","emm at","▁jo uko","kaan \n","aan .","▁jon kun","at tu","▁ta p","ista .","▁us kon","▁yhd essä","ell inen","pa l","▁mu ist","▁näh nyt","! ...","▁n oin","▁x \n","▁r uk","va ,","e k","▁no pe","▁hän ,","▁ko kon","van a","▁hä mä","▁vaim o","▁ky mmen","eh d","mi en","▁sen tään","▁lappa lainen","▁men e","▁var ten","▁toi m","▁lii an","▁pysä h","▁n aa","h ä","▁ta rj","▁vuo r","▁laul a","v as","ty ä","▁an teeksi","u \n","▁o lleet","la isen","▁p ho","▁en kä","usta ,","▁kasv oi","▁v äs","▁h ell","es ta,","▁k el","▁toi vo","yn nä","▁y ön","t to","iksi ,","▁jo iden","emm ä","▁hor he","▁pho to\n","c h","is uus","▁pit kin","▁ensi mmä","▁mu ka","▁ajat teli","it to","▁var m","▁rup esi","si vät","▁ennen kuin","▁hel vi","▁v äär","on ta","▁va h","ista a","▁o r","▁katse li","▁ko ck","mät tä","▁hi ukan","▁ ö","▁jo ten","aa .","ja .","▁kock :","▁j ään","▁sitä \n","▁tie tää","rv en","▁ha us","▁ri i","il ä","▁luu l","m isen","is te","▁kes kus","▁ajat tel","▁vas ten","en .\n","▁t ee","at to","ik i","▁ollut \n","an .\n","▁lappalainen :","▁pa ko","o jen","▁las ke","g i","▁j ees","es taan","▁e mme","it te","▁mer k","▁horhe :","vat .","ri a","▁niin ku","▁tä nä","▁nyt \n","▁tei tä","yy den","▁sano o","r on","▁pää se","▁sy rj","issa \n","▁per us","▁pys y","s en","▁tä hden","▁kor kea","in ko","▁p eh","▁jo ukko","ku i","▁nä ke","▁vuo tta","ut \n","▁r y","▁e hd","▁tu ij","etta va","▁kät ensä","▁a ja","▁huo maa","▁m us","▁v et","▁jo hd","▁ei ,","essä ,","▁miel en","▁yhtä kkiä","is ella","ka a,","ell ään","▁tuo ssa","▁seur a","▁si ir","▁as kel","as tu","ät tä","me \n","▁ter v","ksi \n","▁tun ne","▁vit un","▁var maan","is s","▁ inn","▁o ta","issa .","▁ti esi","aan \n","▁ihm inen","▁kirk ko","v oi","▁ä lkää","si \n","us \n","in e",": n","▁er ään","▁laus ui","ki a","ky mmen","▁on ks","mat to","▁kaar le","▁rauh a","l y","assa .","ta l","▁l atti","▁su unn","▁ään i","its em","t \n","u sa","▁er i","▁ruk oi","at te","kaa \n","▁pa ppil","v y","tan a","▁pal vel","▁vier a","g o","as in","▁nä yttä","ina an","▁onn et","▁ta j","▁jä i","▁vo isi","▁huom asi","▁m ö","än \n","▁po jan","▁ny ky","▁jo \n","▁to isten","▁käy nyt","▁tä ynnä","▁po jat","istä \n","on n","▁ai kaan","uks essa","m pp","▁m an","▁li e","at \n","▁li en","▁t he","▁an tanut","▁tiet ysti","m et","▁ka hden","▁ :\n","▁min usta","vät \n","▁minä \n","em ma","t us","▁a utta","isi lle","▁ma l","▁sit te","oi den","▁ta v","is elle","▁si e","▁tah toi","▁van han","▁kir ja","is uud","il tä","▁pi is","▁yh teen","▁ihm et","▁myös kin","▁ko etti","vät ,","▁ihm isen","▁le in","▁mi etti","▁vi ha","▁sy l","taan .\n","d o","▁sitä ,","▁toi mit","i llä","▁h uut","lla .\n","▁p es","▁ky y","▁par ha","isa r","▁herr a,","m ässä","ik an","äs ty","▁kes ken","▁semm o","▁huo ma","▁ruo t","▁a iko","▁mu ita","▁o ven","▁mu isti","pe ä","▁va rj","oit taa","▁ku va","ri ,","estä ,","per ä","▁y r","▁läh et","▁su ut","onen :","is teli","▁v is","▁tahton ut","b a","▁o ot","van sa","▁ystä vä","▁hur me\n","▁l inn","▁l un","▁huo li","ll een,","ki ,","l as","▁vi is","▁tu pa","▁ro h","o p","▁pi ir","▁ker to","▁ter ve","▁ol koon","▁ro uva","ja .\n","assa \n","▁lein onen:","▁kaun is","i en","ään .","san i","▁sydä men","▁ ina","in een","▁m iks","än ,","▁sen ,","päiv ä","ises tä","▁on ne","▁pa ran","ti a","▁muo d","k et","▁ku is","▁pää ll","▁tai vaan","ell isesti","▁oli ko","▁tun tuu","▁ri em","▁es im","j el","l ö","▁emän tä","p oika","▁tai va","▁juh la","in sa","▁s oi","ki \n","un \n","ot to","k ku","ei li","▁ka lli","▁kuu llut","▁mei llä","v asta","ik on","▁pää ssä","m u","▁ko t","▁olisi \n","▁op etta","ut tua","mään ,","es een","van \n","▁kas vo","▁kor ke","▁s uk","ki en","▁nä yttää","sä \n","▁tä yd","äh än","tan i","▁asi an","▁sam oin","h uo","▁ku mar","elle .","▁myö h","▁va ka","▁tus kin","▁aur inko","on .","▁puh d","a lle","▁m it","▁ker toi","▁sella inen","▁mik ään","▁hän een","vat .\n","ee \n","▁tus ka","en n","an nut","▁tuo mi","▁e p","▁ko vin","▁pää hän","kas sa","▁var sin","▁seis o","ll o","▁as tui","eni ,","▁toi mi","▁ty yty","▁tule va","ll iset","▁va paa","▁tä h","tä hden","▁l ää","es s","ei l","▁tarv itse","▁la h","▁olivat \n","n ö","än i","▁ihm isten","▁ku mma","tan sa","▁san oin","▁p oi","▁jo h","▁ki v","▁lop ulta","in nut","ks et","▁k us","▁o ut","la ista","kään ,","▁kirk on","▁pyh ä","ur i","▁ole va","▁sur u","s yt","▁sa v","inen .","tun eet","m as","uks esta","▁sin ut","uk on","▁al ka","▁va p","ks een,","▁so p","uksen sa","em paa","▁osa a","▁hä mm","▁äs ken","te et","▁kä yt","▁kaikki en","▁ki it","ella \n","▁val o","tä vän","▁o san","▁puh ua","aa .\n","▁va ku","▁yl e","▁o maa","▁vä ki","uksi a","▁valti on","▁marc us","▁mol emmat","▁tarko it","▁s on","▁to r","▁ään ellä","▁yks inä","▁lis ä","▁to si","▁he istä","ist us","aan .\n","kun nan","▁mies ,","tää \n","▁hi rv","neet ,","▁i lla","▁od ot","▁t ila","g en","ta va","▁saa v","tään ,","▁ymmär r","n in","▁ta rk","▁ki inn","▁joka inen","▁hym yi","▁ha rj","tel em","en ä","la isia","▁ma ist","▁vo is","▁äid in","es t","▁tän ään","rö m","r ik","▁t yttä","em en","▁suo m","e d","▁o jen","▁ko va","ansa ,","▁ uuden","▁pa per","llä .","▁myö n","mät ön","▁r en","▁ma in","▁kä v","▁mei lle","j ät","l u","▁o pp","▁et si","ella .","▁kuul e","▁tie dät","▁ri en","ka up","▁mei tä","▁ki el","▁suo raan","▁ta sa","▁nä itä","▁vuo si","▁sa ksa","▁yh den","v ään","▁a va","▁sano a","▁ään ettö","i ll","▁virk koi","d el","▁p in","▁aina kin","t tä","an n","▁ta kaa","▁läh e","▁ne ,","▁huo men","▁hal u","v assa","mme \n","▁vielä \n","issä ,","h en","ki in","▁sa maa","▁ilm esty","▁oli ,","▁ky yn","▁nä k","▁saa kka","▁er ä","▁vuo den","▁pitä nyt","e taan","ut ua","▁kul ta","k kan","▁ja a","▁a hd","▁kysy my","st röm","▁jo ud","▁eivät kä","t taa","ta asti","▁käy dä","▁kään ty","▁per ä","▁ruo ka","▁kokon aan","▁ uut","▁s yt","h u","▁katso ,","▁tyy n","d et","y p","y ksi","▁san at","mat on","r et","▁va li","ma ,","▁kat ker","kun ta","s it","ko s","▁her ät","k kää","ut us","li in","▁tot ta","u in","▁men n","▁f a","▁rakas ta","▁oll en","▁op et","▁rin na","e p","▁p ut","▁v esi","▁men nyt","▁per in","m istä","▁kun in","yy n","ot ,","mat toman","▁h oi","▁sa isi","▁liik ku","▁silmän sä","▁k estä","▁s isar","is uutta","▁ve tä","▁esi in","▁totisesti ,","d \n","▁par empi","▁p et","▁va lit","▁ka iv","asta \n","▁päiv ää","▁l oi","▁r inn","▁jät ti","▁kesk ellä","▁m ul","▁ka at","▁kun ing","essa .","▁is o","s y","t ,","▁ma ksa","▁kään tyi","▁vasta an,","▁ajat us","▁pa ha","utta nut","▁ol isin","▁laps en","▁hu ll","ää ri","▁tans si","en :","▁a b","▁pal asi","▁läh ten","▁tie dän","▁myö ten","▁sis ään","▁no ,","▁kaikki a","▁vuo te","▁lu ke","▁pro f","os t","▁arv o","ittä nyt","n än","▁k ona","isi a,","ot on","elle .\n","▁ran n","▁liik ke","van ,","taan \n","▁mitään ,","▁oli kin","ää rin","▁kuiten kaan","▁vir ka","▁ ur","assa .\n","▁raken n","k is","k kin","ut unut","rj an","l aa","▁o m","▁y rit","ises sä","▁met sän","lleen .","▁pää si","▁huo n","iksi .","▁l at","ista .\n","em pää","vi in","▁kan ta","▁ran na","n sä","ik y","essa \n","▁hämä r","▁jo ul","▁ta s","▁py rki","▁väs y","▁ku mm","▁se itsem","taa .","▁hei llä","▁er äs","ist ö","usta .","▁syn ty","▁p at","▁on han","▁kä vel","▁hä tä","ossa ,","▁pääs syt","▁k ih","ll in","in a,","yt yi","▁ruu mi","▁nyt ,","▁aino a","ut .","▁hän eltä","▁va iv","▁olisi vat","▁nope asti","▁kona :","▁saa p","g in","▁jo na","▁oike a","▁a lla","▁a ih","ell isen","▁puh e","▁so ti","y ksen","isi vät","▁aur ing","asta .","▁varm asti","▁ku vit","▁sy vä","▁ku rk","▁tul isi","▁mar t","▁seur asi","▁kanssa ,","▁lähte ä","▁h eh","▁lo ppu","▁el ää","ri en","▁sen tähden","▁käs ky","▁p ö","▁ki eltä","▁mu isto","ström :","oi vat","▁val mis","▁puh unut","▁huud ahti","▁seli tti","ta .\n","kaan .\n","▁he \n","▁tul en","▁tar kas","▁näky i","▁jän n","▁kyyn el","e mme","▁jo el","▁sel vi","ker ta","▁pitä isi","▁i isa","m äär","▁l em","▁ka ul","▁san an","▁il me","i in","it ,","▁va in\n","▁tun ten","▁kaikki ,","▁su un","▁r uus","▁vi ip","▁pi et","k äs","▁l es","pa r","kun n","ks u","▁kul uttua","▁us kal","▁pan i","▁ensi mä","▁tart tui","t t","▁jo hta","▁its ell","tä r","es sän","▁ra iv","▁kul j","jä ,","▁lä mp","▁ ell","ma ri","▁mi et","▁luo sta","▁ven ä","▁nä et","▁ne \n","▁lu ku","ka isi","▁jo han","ui vat","▁isra eli","▁ha rv","▁tapah tunut","▁ali isa","▁piet ilä","▁s t","▁ka hd","▁y lä","▁to ki","▁as e","lta .","▁pietilä :","▁pää llä","▁tyt ön","▁moos es","is ko","va lla","ur a","▁mu kan","▁pien en","▁kiir e","▁p ud","it ellen","▁men et","▁ul kona","▁a mm","ja l","▁sa mm","▁nä kee","tel u","tun e","o issa","▁en n","▁min ne","▁puol en","k een","ista an","▁as tu","▁naur a","l än","▁pel kää","▁juu r","as \n","it \n","▁huo man","▁ran ta","▁alkoi vat","ton i","▁ up","▁hän essä","▁ha va","un ,","▁ni men","▁hy pp","▁koh den","▁tä r","ua .","▁saa pui","▁lun d","▁se in","ee ,","▁vasta a","▁sella ista","▁pyö r","h aan","▁ol is","it el","▁ka p","▁kä yn","▁kasv ot","▁pitk än","▁pa itsi","▁kat sa","im en","▁sitten \n","teli vat","on nut","▁ni mi","äh d","▁aik ana","d aan","▁nä y","▁hir vi","tä en","ut uu","ää \n","▁tä y","▁kat in","▁ker r","▁le ikki","▁tunn us","▁lähte e","h in,","▁jo os","▁nä iden","▁ne uv","in an","▁mi estä","▁tun tu","▁puh ut","▁tapah tu","▁kell o","p ur","t tu","yt ,","▁on nen","▁sat tui","b ot","▁n uk","▁hy my","▁lu pa","▁har ry","▁lis äsi","m us","▁jo illa","ina \n","▁kä yttä","▁its elleen","▁ta pp","▁ku iv","▁huo mi","▁yli o","▁he ittä","▁val mi","▁su in","▁ä l","▁tur va","h tanut","▁m as","▁jon ne","▁r yö","iset ,","▁kul ke","mään .","▁tuu li","▁ ut","is uuden","▁v ei","▁r eh","sä .","▁pal jo","▁var o","▁hä v","▁lund ström:","to on","▁kir kas","▁epä il","▁kaikki \n","▁ar mo","▁maail ma","▁laps et","▁ja ksa","elle \n","▁lo hd","▁miel een","k esi","ko ,","▁al ku","▁j ut","▁tu ll","▁ter ä","▁tut ki","u ku","ki rj","▁e g","tun a","▁sillä \n","▁tei dät","k ke","▁jo ko","ks in","▁ro vasti","▁ras ka","▁pir tti","o li","▁lu j","h at","▁et ten","▁na im","▁sanon ut","▁mil tei","si .\n","▁la u","▁ti es","▁oike astaan","uut ensa","▁tava lla","oi lle","▁sin ulla","▁koh osi","pe a","▁s oit","uu ksi","▁r isti","os ta,","▁ uutta","▁ku r","▁pi dät","▁vä lit","mme .","▁sit en","ittä in","▁v eli","▁pää lle","▁läh etti","▁kuo r","▁kir ko","▁te k","▁puol esta","o tu","u vo","us .","▁en s","▁pi d","▁läh esty","▁vuo ksi","eksi ,","▁kes ke","▁itse ään","ll isi","el ee","▁ku kka","kseen .","▁ystä vän","▁pih a","i i","▁l yy","er o","▁las ki","▁tos in","f f","▁pa ikka","▁nä yt","▁sy v","▁häntä \n","urs ka","▁ina ri","▁s ta","▁p r","▁jo pa","▁koko on","▁kanssa .","▁ve den","▁h ö","▁va ra","▁ta kan","isi .","▁mi llä","▁tar p","▁vas t","▁lyh y","e tään","m on","en a","▁a at","▁vi et","ellä \n","essä .","▁ver ta","o ma","▁r ikka","▁he ikko","▁jäl j","▁jo utui","▁kirk ka","▁nuor uka","u lle,","▁ki ito","▁ympä r","▁h ää","va lta","▁so pi","issä \n","▁r ik","▁us ka","e kka","h y","p s","▁s än","▁ku k","▁ha ud","kään \n","▁l uk","▁si in","▁si un","▁pa pp","▁puh eli","▁le ik","▁arv eli","▁tahd o","on ut","▁er iko","▁ke in","er a","vat :","ella .\n","▁syn tyi","mieh en","i go","m esta","o lo","▁ta kana","▁ajat uks","▁si r","▁pi i","▁sä il","her ra","i pi","m ästi","n u","p ol","in ta","it tu","▁et kö","▁ir ja","isit te","▁sair as","▁tä yttä","▁to hto","▁kaik esta","▁j ust","▁pa ina","van nut","▁tuli vat","▁sel v","y yttä","▁o mista","▁p istä","inen .\n","että vä","▁ilm oit","▁oli han","▁miel estä","▁ken en","▁sala perä","▁koi v","▁eg yp","k kun","▁ran ga","▁aik oin","▁o vi","▁p onn","▁vi isa","▁al tta","▁har ha","p un","▁o ud","ra ha","iksi .\n","▁hi ll","yt tö","ki ä","istä än","▁lu ki","▁sel västi","▁rah igo","▁seitsem än","▁ko o","ri \n","▁ole \n","▁ke tään","▁esim er","uu ,","▁kaik kea","▁läh tö","issa .\n","▁kaupun ki","▁nel jä","▁jään yt","▁s äh","ik kö","▁tä ys","▁ne iti","e f","▁h ui","si a","▁läh d","▁kuol eman","iky mmen","j u","▁a lle","▁vi in","ty ivät","asta .\n","▁nä l","▁kas vat","▁kiit os","e ä","er in","la isi","▁po ikki","kan sa","▁uud elleen","tu aan","istu ksen","▁tapah tui","▁auring on","▁a mp","aa l","▁la i","taa .\n","istä .","▁sinä ,","▁ik u","▁aam ulla","ella an","uud esta","▁pois ,","▁vier as","unn unta","it ys","▁va ati","▁ta vat","▁tuo sta","▁sitten kin","lleen .\n","▁hel sin","▁maail massa","▁g a","▁käsi var","▁inn os","l j","m ästä","r ei","tä .\n","▁en tä","▁pal aa","▁huo no","▁las ten","▁kuol em","▁aam u","▁r uko","▁ko rv","▁kuu ka","ist in","tun een","▁vall an","▁jo lle","▁va uh","▁vi el","▁väh itellen","▁pe it","tele maan","▁ot tanut","p as","▁j uli","▁v es","▁pa pin","l uo","▁s ät","▁j en","tä mään","▁o mat","▁on kin","▁no o","▁ed ell","▁poh jo","▁paa vo","s u","▁p äänsä","▁tiet o","▁ at","ik ään","▁hän kin","utta va","▁sa un","ty ään","▁poh ja","▁huomen na","▁n is","▁ol a","▁po rk","istu ks","▁kaupung in","▁s unnunta","an ne","▁v että","et ön","▁ma hta","iset \n","▁koko \n","mi ä","▁sy ksy","▁vielä kin","▁b er","▁mies ten","▁kuo li","▁haa v","d on","is in,","us .\n","▁ki usa","▁pi il","▁suo s","▁pöy dä","▁olem assa","▁jouko ssa","▁hirvi :","▁n osti","▁al kan","▁läh että","▁li isa","▁val mista","▁d o","▁ot sa","▁l än","ina .","▁minä kin","▁heidän \n","▁mon et","q uo","t ell","▁l y","tää .","▁kar ja","▁pyy h","en e","os taa","▁an ka","▁per h","▁huu li","▁sat tu","▁kysy mys","ll ö","at on","▁r et","▁mitä \n","ee ksi","ys sä","▁na inen","▁na utti","▁j ö","▁pa i","essä \n","eksi .","uksen ,","▁määr ä","▁tiedä ,","an ta","is tui","▁li it","▁hi taasti","▁tav oin","▁k äär","▁ma i","▁as u","▁tuu l","▁sää li","▁p ell","▁ta it","▁e es","▁la iv","▁ker ta","▁muuta mia","▁yhte is","▁hämm ästy","pp ä","▁siitä \n","▁oll u","▁a jaa","▁vi ikko","▁vuo s","jen \n","kään .","▁eikä \n","▁j uus","▁saa vat","eet ,","▁par emmin","▁por ta","▁v ään","si vat","▁työ tä","▁ve d","▁od ottaa","is ee","▁b a","rs ky","▁ik inä","▁onn ell","h un","ti \n","▁sa in","ri in","▁sil tä","▁mar tin","▁ven e","▁tyyty vä","▁a g","utta ,","▁ra uta","▁hi ih","▁suur ta","neen ä","▁ itä","▁p us","▁no ud","vaa ,","▁tahd on","▁tahto o","▁kot ona","▁ep ät","d essään","▁ im","us ten","▁ke vät","ansa .","▁luo na","▁isän sä","▁eh tin","▁taiv as","▁san aa","▁yh tään","huo ne","▁ta han","▁pa ra","jan sa","▁tei llä","▁siihen ,","▁syn ti","▁si iv","va \n","ot tanut","▁mu iden","ist on","▁mitään .","tunut ,","▁jumal aa","j asta","▁ko kona","▁e ur","man a","▁kuul unut","▁hal ua","▁ .\n","▁v eti","▁jos \n","▁val ke","▁ihm isi","issä .","▁niitä ,","▁vah v","b i","usta \n","▁par as","▁rin ta","kymmen tä","t et","ll ei","▁n öy","▁he ik","▁li is","▁tar vi","▁sai vat","▁siel u","ja lle","mat tom","maa ,","▁jon kin","uun ,","▁tyh j","kaup un","▁va isto","▁sa ta","▁sa lais","▁ma ta","▁silloin \n","▁juo ksi","▁maan ti","▁nous e","▁käd et","l ta,","ko ot","mä llä","kaa .","▁har r","ll isia","▁r us","▁he del","▁so vit","▁tie tää,","d y","h ön","ti o","mme .\n","ist un","▁ihm isiä","▁pain oi","r u","▁p ään","ut i","▁e hti","ossa .","▁saat taa","▁pöy dän","▁y ll","▁ra ha","▁per he","▁tää ltä","▁saat ta","▁huoli matta","p y","▁v yö","▁ky ken","▁vasta an.","kki a","▁aa l","▁varsin kin","t it","▁j äs","essa .\n","▁so l","ni ,","▁ed elleen","▁kunni a","p itä","sa a","▁jo ista","▁se kin","▁sa ksan","ot tom","▁ki ro","ne .\n","▁läh de","▁tod ista","h ka","j ia","t is","ys ,","▁d i","▁yks ity","▁saan eet","▁od otti","ll isten","ik u","▁jo utu","ellä .","▁jonka \n","kseen .\n","c o","s \n","▁vi en","kö ,","▁per ässä","▁vai va","▁huu ta","▁h mm","▁kyl än","▁var ma","▁vaik ut","lta \n","▁häntä ,","▁lä ksi","▁ty tär","▁viime in","▁p isti","▁a vi","▁pää tään","▁suo r","▁het ke","▁au ki","yt yy","▁ko ke","to o","ot tiin","ua \n","▁suo rit","▁kes ki","▁sai ra","▁suh te","▁tuij otti","m ää","tä västi","ut ettu","▁la ve","▁ha ke","▁an tin","nyt \n","▁ruu miin","▁a jo","▁se ka","ks esi","ku a","▁tun ti","tel y","▁vuo d","▁maa ta","▁lä mm","▁tans ka","▁va hin","▁hy p","▁kol m","▁pysäh tyi","g an","▁h uh","▁ku unn","▁ajat ell","▁tää \n","▁siellä \n","▁vaa ra","▁kuo llut","tän sä","▁taiv aa","▁onnet tom","el ma","ist unut","▁siinä \n","▁lähti vät","▁tunte e","i mm","▁ku mp","▁to te","▁vuo teen","▁m yy","▁a uk","äs tä,","▁il tana","ken ut","▁n en","▁ei pä","▁ha mpa","▁vä ke","▁er ää","▁hel p","▁aiv an\n","koon ,","▁tal v","▁huu l","▁tule vat","▁näk yy","el a","▁pi eta","▁kä r","▁pää tö","▁jä rk","kka asti","▁vaik ea","▁mo rsi","▁ylio ppil","ll on","▁pa han","▁la ih","▁äs ke","▁tuomi o","ut un","ei lla","nyt .","▁tun nen","▁her m","▁mei dät","raa li","▁peh me","▁erään ä","▁kuis kasi","k ur","▁n oita","▁kuu lla","▁kan na","▁teh ty","▁kasv onsa","▁lis ää","▁valti o","▁ki il","▁to pi","assa an","▁ver ran","▁väli llä","▁nous ee","ti ,","to ja","▁epät oi","▁lave er","s ka","en ne","usta .\n","▁taas \n","▁mieli ku","▁p ul","si i","ei lle","ko ja","▁et eensä","▁kyl ä","▁p ui","▁vaan \n","▁jout unut","h im","i ta,","s ut","si .","oi ta,","man sa","▁päiv ät","▁het ki","▁kohta lo","▁ell ei","▁se inä","▁en empää","▁pi dä","▁he itti","po r","▁aik oi","▁ympäri llä","▁pappil an","▁va la","▁y n","▁ki vi","▁per kel","▁suur et","asto in","▁tois ella","is ista","et uksi","▁jo kin","ki r","eli a","▁per ästä","ksen sa","▁ymmär tä","es tyi","▁a kkun","▁hy västi","▁puh ta","▁ann an","▁tahd ot","▁maist eri","▁kuning as","isen ,","▁her äsi","▁jä rv","llis uus","▁ettei vät","▁piis pa","bot :","isi .\n","▁mu kana","▁suu rin","▁yl eensä","▁katin ka","▁o i","▁r ei","▁le ve","▁vel jen","h teli","▁ z","is tää","is yyd","▁o ik","▁sisä l","▁rii pp","▁p ot","▁jo uk","▁ko d","to ,","▁he ikki","▁kaik ista","▁kaik kein","▁aa r","ho ja","mään .\n","▁mitään \n","▁juo ks","▁vanh empi","▁kymmen en","▁lähten yt","▁a rk","ell yt","ina .\n","▁sil ti","▁lisä ksi","▁suo j","▁ovat \n","▁ent istä","l at","en kin","ei ta,","▁ma kasi","▁voi ,","▁silloin ,","▁olla \n","▁katsa hti","▁säh kö","kin a","tänyt ,","▁siel un","isy yt","▁lien ee","▁ja lo","li a","▁it ke","ken n","▁sano mal","▁d a","▁lop uksi","▁yr itti","▁v äärin","ma isesti","ko a","▁pa kko","▁an toni","▁seuraa vana","v il","is \n","▁t em","▁ni ihin","▁tä llö","▁tod ellis","itse e","▁olevan sa","▁eteen päin","▁aj oi","tu ks","▁ma rs","▁san a","▁sy ys","▁li ika","jo ukko","▁poika ,","o k","it teli","▁vi iv","▁niin pä","▁ha uta","▁hei l","▁kats eensa","ansa \n","▁saat u","▁lin tu","▁ni ille","uks een","▁tul o","nut .","▁luon non","▁yksin kerta","▁taa kse","j ö","o lle","tel in","▁pel asta","▁kaun e","▁naur oi","▁aav ista","▁tyttä r","▁r iv","▁ku vas","▁jos pa","▁it e","▁vasta n","▁mon i","▁mer ki","▁luu li","▁milloin kaan","en :\n","▁jo issa","▁tä s","ri lle","▁jä r","▁muuta man","▁ikä vä","f i","t s","ti es","▁ku mmin","▁se hän","inä ,","▁sul o","i kaa","it t","▁l emm","▁ko vasti","▁pa ken","van .","▁us ei","▁ve tää","▁nii llä","▁puu tar","ber g","▁m esta","▁si ja","▁ko to","▁puh een","asi vat","uud essa","kseen \n","▁sä ik","▁pah aa","▁valtion e","u jen","▁ ,","oi li","▁oli mme","▁ko rk","▁kor va","▁syn nyt","▁eläm ässä","p äs","▁kä yttää","▁vuo n","▁sanoi \n","ansa .\n","▁mon en","▁aik an","▁tunten ut","e va","i lle,","on .\n","▁luon no","▁ikä v","it taa","▁ha j","▁ra j","uk ut","lta .\n","ettu ,","▁kol man","▁eteen pä","▁laveer re","e c","et .","▁l äs","us ko","ua .\n","▁i ll","▁yl en","▁jal ka","k es","u .","▁kuu s","▁kos ken","▁vast usta","▁n ot","▁ko v","isi lla","▁jesse bot:","d ään","▁n oi","ko r","ät ti","▁kul u","▁c o","▁viime inen","▁pas ka","▁hien o","▁keskus tel","p uh","▁o masta","kin ä","▁is tuu","essä .\n","nut \n","▁täyt y","▁tal ossa","▁ois pa","▁pää tti","▁hy vät","▁puh uu","▁jä rven","▁aa ron","▁pyh än","te ki","▁lo ista","▁os ta","▁kon e","▁naa pur","g e","▁h im","▁ja ksan","ne .","istä .\n","▁enää \n","▁pir t","▁run o","▁noo ra","g :","▁an d","eni .","massa ,","▁kuole ma","v un","v on","▁v in","si en","▁ni mis","to ista","to jen","▁har ma","g er","lle ,\n","▁ha u","▁an sa","ky l","▁ään ensä","▁asi aa","▁käs ittä","▁hymyi li","▁h oita","▁ka uk","▁y rj","neet .","▁muista n","mieh et","▁a in","mään \n","▁ho us","▁rakka us","c e","l taan","es sani","▁ko etta","yö n","asti ,","▁oo la","▁nuor en","▁aut i","▁saar n","▁juus o","u van","isesti ,","▁mieh iä","llis uuden","▁väl ttä","▁sydämen sä","▁jona tan","tanut ,","▁jotka \n","▁silm issä","p at","p öy","▁r yy","▁ko men","▁y o","pa ik","▁kaik ille","▁mitä s","▁ajat tele","▁jumala ,","▁kar tan","▁kaar ina","mpi a","▁hall it","▁kauk ana","l ei","m .","p uu","▁ni issä","▁pa uh","te taan","▁it ki","kun na","▁vaikka \n","▁tut tu","▁teke vät","ll ensa","▁l ehti","▁et el","▁ker tom","tun eena","emm an","▁herr as","▁fa ra","ta lo","ka ik","▁ko ton","ään .\n","ot \n","▁minä ,","▁ole maan","jan a","eet \n","▁ri is","ksen sä","▁pan e","ji en","▁hetk ellä","▁ö lj","is in\n","is tiin","tä vät","▁o kei","▁hän .","▁a var","▁ko rj","▁ko kko","▁ei len","▁na isen","▁b i","▁sanoi :\n","▁ajat ellut","ettu a","▁käs ki","osta .","▁c an","▁eläm ää","▁kuun teli","▁jaa ko","k än","▁o maan","mm as","kki en","▁ajat ella","neet \n","▁hel v","▁sel vä","▁isra elin","▁en keli","ku in\n","▁äit insä","▁todella kin","▁tanska :","▁j uttu","▁on .","▁sa d","ista n","vi r","▁muu an","▁kirj e","▁han na","ll y","▁va in,","▁sin i","▁sitten ,","▁na ut","▁vel vo","▁uh kaa","▁lää kä","▁ehtin yt","u e","▁k in","vaa \n","▁pitä is","▁herr at","▁väl in","▁suh teen","▁kuu m","▁kats el","▁har ti","▁jät tää","▁my rsky","! !","▁la iva","ken yt","▁yl pe","llis uutta","▁minun \n","▁ken ties","▁av ulla","▁jees us","m un","▁s ö","▁ka la","▁vi ikon","▁en \n","▁kaik ke","▁ne uvo","▁vaik e","me a","▁mat kan","▁oh i","▁syö dä","▁ulko puol","▁aih e","o ja,","▁t on","▁jo llei","si l","▁ko p","▁ma ks","▁ih ana","▁kas va","▁puol een","▁hal uu","▁tois inaan","▁elämän sä","▁huone es","▁määr ät","▁ihme ell","▁vuon na","h \n","h ää","as e","▁ka ma","to r","ot tomasti","pa an","mat ka","▁aina \n","rs in","▁vaa le","i vat","▁mu un","▁li ha","▁lu m","▁hel vet","▁vel ho","▁terv ehti","▁jo o,","▁mu kaan,","▁tuo mit","▁var ha","lä is","jä rj","▁miel tä","uv os","▁illa lla","▁ ista","ma ksi","▁ki rs","▁tun ke","▁läh ellä","▁li itty","esi ,","▁mer en","▁jää dä","▁tapah tuu","l is","m ö","▁on ni","▁la illa","▁ma un","mi lle","▁ra u","▁tuo ks","▁ar ma","päiv än","▁ir ti","▁len to","määr ä","i mmä","▁si j","ko jen","tu ksen","ve ta","▁tois een","▁raa mat","▁mil jo","▁kr uun","▁ollen kaan","k ell","l tä,","▁s ään","▁t een","▁ti pp","asti \n","▁pel kä","▁kirj an","▁el än","▁pol tta","▁vastaan .\n","▁teki vät","b in","s ti","▁ uun","▁ta paa","▁ka lta","▁vi han","▁ki rv","▁tu ke","▁il mi","▁er ity","▁ala kul","▁riem u","h oita","v is","▁ni me","▁et e","uh a","kaan sa","ha r","▁luo tta","▁ed usta","▁kanssa .\n","▁pol vi","▁tied us","▁henki lö","▁jö ij","i ri","aa li","va hti","▁ki iv","▁ma assa","▁juu ta","▁kal pe","iseksi ,","▁tyh jä","▁kah vi","▁tö r","▁kyn tti","▁p asto","si in","▁te in","eksi .\n","▁ed essään","▁ymmär rä","▁nel jän","▁myöh emmin","▁k is","▁k it","ih u","▁he it","▁he ittää","▁min uun","uk kaa","▁kan g","▁hä vit","▁ajat ukset","▁i llan","▁tal ven","▁koi ra","▁roh ke","n et","▁hän .\n","▁tä ti","ksi a","▁mu a","ässä ,","▁sä vel","▁its estään","▁jat ka","▁jäl ki","▁näl kä","o .","än nyt","▁si una","▁on g","llä .\n","▁joka isen","▁miel ensä","▁sel ma","▁asti ,","▁siv u","▁arm ei","▁son ja","y ys","▁sy ystä","▁ke itti","▁f i","▁tule van","▁jälk elä","m ises","p una","v u","ka ise","as tui","ke ästi","ten ä","▁sy li","▁tul in","▁ollut ,","teli \n","mp aa","vää ,","▁ann asti","▁luon to","▁tuh an","▁rakka uden","▁moos eks","▁syrj ä","▁epätoi vo","▁tällö in","▁j ep","▁var maa","▁koh taan","esta .","▁käs it","▁ty l","▁jossa in","▁ras kas","▁v än","va ina","▁la at","▁he inä","▁an ne","pp y","▁kä veli","▁tuo hon","mat ta,","eni \n","isten \n","▁ke ino","▁mieh i","▁näh dessään","▁uud estaan","▁kauh e","is ellä","▁n ää","▁ka ppa","ot toman","▁la uta","ol an","▁pääse e","as een","el ta,","▁min ua,","pi ir","▁ri p","is issa","▁a ir","▁va iti","▁ku rj","▁on .\n","▁tä mm","yy h","▁na is","▁jat ku","h tu","uu \n","isesti \n","▁hi ipi","▁sanoi :","▁hä ir","▁toi min","▁viime isen","▁tois elle","▁tava llista","l on","r as","▁ ääri","ll ista,","▁o rj","▁t en","il em","▁ol en\n","▁kan toi","▁var ti","▁aa b","tanut \n","▁lä mmin","jaa ,","▁ruu mis","▁tohto ri","et ta,","ut ensa","at tom","▁mi ell","▁tä lle","▁nä istä","▁po rs","pp o","▁il oit","▁ker ro","▁tuli \n","▁siih en\n","▁käy tän","▁vaim onsa","▁tarv innut","k usta","t een,","v ina","▁ka ih","ki l","▁pa ks","▁lu mi","▁hänelle \n","▁av asi","k iksi","m ist","y den","▁ma mma","pp aa","▁ajat uksi","▁miel eensä","▁asi at","▁kuts u","▁h uma","▁t el","▁jä y","▁na iset","▁sinä \n","▁har maa","▁laul u","▁suuri a","▁lei ma","▁toisen sa","isty s","▁out o","▁perin tö","▁o k","et un","ur in","ellä .\n","▁olla an","▁mar ihu","my ys","▁kans s","ity ks","▁use a","▁täys in","▁marihu ana","t tuu","▁r iko","▁vi isi","la an","▁as un","vät .","▁il massa","uks en\n","▁huo neen","▁tai taa","vän ä","▁vier aan","▁huu taa","▁katso maan","▁valta si","▁can tell","▁j un","▁ka isa","ki lle","ään ty","ten \n","▁al ta","elle et","▁sano :","etti in,","▁ann in","▁lopp uun","▁jäs en","d er","j ää","il ee","▁la kka","▁tu ka","▁saa ta","▁er kka","▁puol ella","▁pan na","po h","▁ken raali","▁tien nyt","▁sta rk","ikymmen tä","ta s","▁r os","▁kul kee","▁oh jel","▁iisa kki","o m","ja lla","mi a,","▁sy yt","▁sano ja","▁yl hää","▁tal vi","▁c ia","▁joos ef","▁äl köön","▁k eksi","ko \n","▁vi ih","tää .\n","▁li itto","▁her ää","▁er ka","tään .","ille \n","▁päivän ä,","▁hyö kkä","▁suin kaan","l \n","in aa","▁o ppi","os taan","▁miel essään","▁tämä \n","uus ,","▁täyt ti","▁rah aa","mättö män","▁cantell \n","j asi","k uo","k kas","at toman","us sa,","sä hti","ko t","▁pa is","isi a\n","▁pää tä","▁par asta","▁ke ksin","▁pyy si","▁väli in","▁pain ui","▁run sa","▁tuij otta","d a\n","▁h uk","▁v ila","▁as em","▁van g","▁le vo","▁elä mään","▁hu vit","j oita","an i,","ll inen,","▁p eli","ei hin","▁hy vi","▁voi man","jan \n","uut een","▁muut tui","▁ty kö","▁latti a","▁les kin","▁aab raha","b \n","h ,","as .\n","▁ka is","▁ol o","ri ä","▁ma rin","im pi","▁vuo ro","▁tai \n","▁tapa uksessa","▁liik ut","▁näytti vät","▁toim een","▁keske ytti","▁leskin en:","j e","▁kä den","▁al ussa","▁läh en","koi hin","▁b ar","▁tulee ,","▁poik ansa","▁rien si","▁viip y","? ...","▁h in","at taa","on in","ja in","▁sen kin","▁mu lle","▁men ivät","estä .","▁hel po","▁uh r","▁tover i","essän i","▁mooseks elle","▁n osta","▁la id","kaa .\n","▁mitä pä","▁ver i","▁työ hön","▁kol men","▁sän g","t eri","▁r uh","▁oli .","äh teli","▁to isiin","▁nyt kin","▁er ino","▁sano a,","▁olla ,","▁näh tävästi","▁vaim on","▁u mp","▁ru ven","▁mark kin","▁vap ise","▁m ust","▁a kka","▁is t","▁kuu ll","▁suo ra","▁vaik eni","▁kos ki","ssa ,","▁itse kin","▁kor vi","▁vaat im","▁järj es","▁huoma utti","h tui","isi in,","▁en g","▁tu lleet","vä ,","▁itse kseen","▁isän nän","utui vat","▁ojen si","t uo","▁o f","än .","▁p etty","▁ta ll","▁se ikka","ko ul","▁vi i","ri lla","▁ky se","▁to isin","▁an ti","▁pit kään","▁teh tävä","▁tava llisesti","▁pol v","▁ilo inen","▁rii ppu","▁peh to\n","▁toimit ta","k yt","in ut","▁k äh","▁t ih","▁ku kin","▁on ?\n","sä .\n","▁suo mi","▁per se","▁heng en","▁muod os","l uu","li ik","▁ku iska","ki el","▁ki eli","▁as t","▁pal kka","▁ä kki","▁aina kaan","▁asi asta","ossa .\n","▁pien tä","▁huone eseen","▁alkan ut","a m","s s","▁he in","▁lei pää","▁lohd ut","i llen","p asi","v issa","▁ uus","▁v oitta","▁jo o\n","on e","ko it","▁ha ih","ra lla","oit us","▁tun sin","▁sin usta","▁luo ,","▁koh taa","▁me itsi","▁aa kus","▁mitään .\n","ille .","▁sai raan","iks een","▁juh a","▁uusi a","▁s ut","it tiin","▁r uun","tu ,","äh tä","▁la ita","▁häntä .","ossa \n","▁el o","▁kau as","▁usko va","▁jesse \n","▁sor m","▁ruot sin","▁opetta ja","▁herm os","v ih","▁r ikko","▁to isia","▁ra ja","▁il maan","asi a","▁kos k","▁kau ka","▁rakka ud","▁äit i,","j oi","k ät","p en","is ku","een i","▁sa r","ksi ä","▁hy l","▁val h","vän \n","nä kö","▁kys yy","▁sel kä","▁lö i","▁yö tä","▁köyh ä","▁s ua","is yyden","▁is ä,","▁puh etta","▁har ta","uksi a,","▁jät tä","▁huoman nut","a la","▁k et","mm o","▁ma kaa","▁kuu me","▁huo ka","▁yh ä\n","tei den","neet .\n","▁ettei \n","tunut .","▁seis oo","tynyt ,","▁ette kö","▁pysty yn","▁palveli ja","▁lyy li","isi mme","▁ol ka","▁niin ...","os en","▁kos ke","▁hyvä ,","▁alkoi \n","▁ympä rö","▁viho llisen","▁pysäh ty","▁on ?","uh r","▁po issa","▁min ulta","issä .\n","jä lk","tanut .","▁tur haan","▁ympär istö","p ih","▁pa ist","la at","▁saa tan","▁d e","▁vai pui","▁sella isen","▁tyt öt","yty nyt","▁juh o","▁sisä lle","▁äär essä","isy ys","ta a,","ik in,","▁si jaan","▁ta pi","asta a","▁sen jälk","▁teh ä","▁kirj oitta","▁saat te","▁pyö ri","▁läs nä","▁yrj ö","b ri","o aa","is ina","▁ja ks","▁ku ma","kin en","▁ä ly","tei ta","▁f o","▁kerran \n","▁jumal asi,","▁nii lle,","▁istui vat","▁järj esty","▁kahd eks","▁eng lan","v ista","▁h isto","es san","ja hti","▁ma h","▁ä r","▁pä in,","▁sil min","▁jot kut","▁sanoi ,","▁i ä","▁pois .\n","ton sa","▁poh j","▁hev onen","▁laula inen","▁valtione uvos","▁s ot","▁n yyh","▁sa lli","äh tää","taan sa","▁pä in.","▁b r","▁kos te","▁ho ukut","▁suur empi","▁hen k","▁sal aa","▁semmo inen","r os","ut een","▁oli pa","▁pa rin","mi lla","▁nä en","vi lle","▁kat osi","man ni","▁val eh","▁val taa","▁kes ti","▁olet ko","mis een","illa an","▁ilm estyi","▁vo isin","▁pu ke","val ti","▁huud a","▁poli isi","m malla","▁m es","▁ja uh","▁kun han","▁po ro","▁is ki","▁asi oita","ettu \n","▁kyllä ,","▁tah i","▁tuu len","pal vel","▁huut o","▁ylä puol","▁help osti","m inä","y yt","▁n at","▁vi eh","▁sa asta","ih in,","▁hi eman","▁kyllä \n","▁isän i","▁yö llä","▁luon n","iseksi .","▁av ut","▁huone essa","▁pir tin","▁siksi ,","▁osan nut","▁vaku utti","▁heh ku","▁uskal tanut","▁vaisto maisesti","ö ö","et ut","ut tiin","ut um","▁r ist","▁ku ta","▁sa maan","▁te ko","▁kul ku","▁hä pe","▁ilm oitti","▁han n","ees een","▁seli ty","isuud essa","▁erino ma","a ika","▁k ei","▁j uko","oi tan","▁as ukka","▁val on","▁puh al","▁kas vaa","jä rven","▁hä vi","▁ed ellä","tunut \n","▁hänet \n","▁arv el","▁tahto isin","▁lem pe","▁mata la","▁s oin","▁j ur","tä t","▁oli t","ät ,","▁ol isit","▁vi itta","▁la kkaa","▁ma j","▁men esty","▁so si","▁voi maa","▁vaik kei","▁par ati","▁arv os","▁kään si","▁hilja isuus","▁hetk isen","ber t","▁maahan ,","▁vasten miel","▁näyttä nyt","▁hämm äs","▁hirv e","▁ikäv ö","k ys","▁s te","▁m is","tä v","es \n","▁a uttaa","ko hta","▁ma at","▁mu utta","▁te istä","yttä vä","▁puol elta","▁ver en","kon sa","▁os taa","▁paljon \n","▁kiinni ,","▁taistel u","quo t","o on,","▁h ukku","it etty","▁jo uni","▁ku rs","▁ka rj","▁ko ur","▁vi im","▁it ku","▁voi malla","vän ,","▁kuinka \n","pää ll","▁jatkoi :\n","▁laa ks","▁mahdo llista","▁et kä","▁mi lla","▁tä hti","▁e ks","vät .\n","▁pal at","▁sinä kin","kään .\n","▁onn ellinen","▁rakas taa","▁siel unsa","▁aset tui","▁päin v","▁pat rik","▁ölj y","j uo","t tö","▁ äh","ma \n","ma lta","▁y llä","isi mm","▁ti eltä","▁kan er","esta .\n","▁rakas tan","▁juh ann","isy yttä","▁haus ka","▁niinku in\n","▁mus tan","▁johan nes","▁nöy r","än n","at .","oi l","iv i","▁no r","han ,","▁ho pe","ille .\n","▁tus kan","▁han kki","▁tyy d","▁pos ki","▁suunn itel","▁prof eet","▁luk en","▁ iv","▁h ol","ell en\n","▁pa ho","▁ra vin","vä en","rv o","▁so h","▁var s","isesti .","llis een","ässä \n","▁näh den","▁sella isia","▁anta kaa","▁sää s","▁hiljaa ,","▁huol et","▁paika lla","▁kummin kin","as en","▁ku kki","▁se isa","asta an\n","mä en","▁tuo mas","▁voi \n","isesti .\n","iksi \n","lleen \n","etti in\n","▁pan n","▁kohd a","▁selit tää","m uo","ll eni","▁o ve","▁v at","▁si it","yt ty","ot us","▁pi ll","ky n","teen sa","▁uh ka","llään ,","▁kohti .","▁marin :","r il","ö stä","ka ri","▁ku ll","utta van","va ksi","ja ksi","▁ki d","▁as um","rk y","▁voi vat","▁vaik utti","jo hta","▁tur h","▁in to","▁yön ä","▁maksa a","v inaan","▁n yö","ti in,","▁ka ll","▁ni il","▁tä hd","▁e tä","▁ker ton","estä \n","▁kes än","▁eivät \n","▁ymmär tänyt","▁sisä llä","▁tälla inen","▁sop im","▁lämp im","e tä","r a,","▁j er","ma in","inen :","▁il on","essa an,","▁us koi","▁hä r","▁kes tää","▁me istä","▁teh d","jo uko","▁pien et","llinen \n","▁por va","▁missä än","▁sydän tä","▁jout uu","▁jy r","▁kunin kaan","▁tiedän ,","▁hetke ksi","▁lemm en","m ,","ö ssä","ll istä","▁jo uta","ää .","▁niin .","▁la ki","vä ki","▁kaikki alla","▁ker toa","▁er o","jä rv","▁kanssa an","▁un el","re ä","▁niitä \n","▁sat tuu","▁kiir uh","▁äär ettö","▁kuts ui","▁lähet tää","▁pork ka","▁vahin g","k ti","p eli","▁h öy","it on","ik er","▁en hän","▁ki iva","▁min ussa","▁men en","▁ri kas","▁itse \n","▁käs in","▁hen ken","▁ken elle","ast us","▁kohti ,","▁esimer kiksi","▁mieliku vit","▁h ih","▁n enä","un na","▁r ot","▁ta ul","kin ,\n","▁en kel","▁ki mpp","mi a\n","itä ,","▁kan taa","▁li t","issa an,","kö öt","vän sä","▁jul ista","▁lapsi a","▁teke mään","h ol","▁ni em","ul an","te ko","eh to","▁nä illä","em ok","lä iset","▁er kki","▁kul unut","eksi \n","▁sano en","ittä vä","▁syö ks","▁aam un","mies ten","▁rä j","▁ru veta","▁ali tu","emmä ksi","▁pääll ikkö","▁ruus tin","▁lämp ö","el tu","▁a vaa","▁se kaan","il u","pa ika","▁huo mat","ran a","esta \n","▁syn t","▁vanh aa","▁kaup pa","▁lop et","▁tuon ne","▁edessä ,","▁kil pa","▁tämm ö","▁h on","▁vi ik","▁mu istel","▁f or","▁muista a","änsä ,","▁u mm","▁mol emm","▁saar na","▁täy si","▁anka ra","▁senjälk een","m ei","y \n","is empi","va llan","▁min kään","pä in,","tel emään","▁luo kse","▁sanoi vat","▁le pä","▁kats een","uun .","ettu aan","▁jul k","▁vanh at","▁nähdä ,","▁uno hd","▁jy rk","▁jussi .\n","▁haus kaa","o h","is k","▁ni it","te ,","ot onta","▁an kar","▁sin ua,","▁kuul in","▁tot uuden","ila isten","▁tässä \n","▁rakas ti","ati on\n","▁voima kas","▁rat s","▁hevos en","▁tosi aan","m oi","m uks","m uksen","▁n os","▁r ää","se et","▁koh taan,","▁un i","▁aivan kuin","▁talo on","▁eli as","▁ga bri","▁avi oli","▁kuvas tui","i mme","j on","o ksi","p os","s .","▁s c","as s","▁ta ki","▁et een,","▁san ottu","▁vä it","aan sa","▁kas van","▁voi daan","▁lo isti","▁hi uk","▁kul ma","▁tuli ,","▁kanssa \n","▁juo kse","▁ensi o","▁oh itse","yty ä","▁ikään kuin\n","▁kenen kään","▁va ina","utta a,","▁is tua","estä .\n","▁er ittäin","▁mieh ensä","▁näky nyt","▁talo us","▁silmi in","m eri","▁ ?\n","▁m m.","▁niin a","pp el","▁le po","▁myö tä","koon .\n","otta va","▁pol tto","▁paik oi","▁kus taa","m ppu","u ista","▁h oit","ra kenn","kas ti","▁ollut .","▁var r","▁maa li","▁kats ele","▁ri ika","▁f il","▁mon esti","teen i","▁usko t","▁liik kui","▁hyv in\n","h in\n","m \n","t tanut","ta t","ta pa","▁s h","ke an","▁e tää","ui lla","▁läh in","▁no usta","▁koh teli","▁koh otti","▁pel ko","inn an","▁mer kki","▁re un","▁nim ittäin","▁syy tä","▁poli itt","▁menn ään","▁up se","▁l asta","▁pa ppa","tu ksi","isi ä,","▁sa lo","▁ky ll","kä y","▁puh el","▁mat kus","▁siinä ,","▁väh ää","▁yl hä","▁kor p","tele vat","llisen a","▁tunsi ,","▁mur he","▁len n","▁vihdoin kin","▁piis pan","▁ruot sa","▁ep äs","▁mart va","▁lähettä nyt","u vat","is inä","ka u","▁vi että","▁la ina","oin \n","▁tu kka","▁tu kki","tan en","ha ll","▁er ila","▁aina ki","▁ke ve","▁tar pe","mp el","▁pois .","▁vier essä","▁usko a","▁usko tto","ila :","▁ty rk","▁arv ila:","▁vir ta","sän i","▁väl istä","▁mahd oton","▁ikkun an","emma ksi","is een\n","et tuna","▁l oit","▁ka ip","▁mi e","ten a","ty ne","▁to isessa","▁li ina","▁val kea","essa an\n","▁men kää","▁vielä pä","tiin .","▁kul ui","▁mat kaa","hti vat","▁sel vit","▁muut tu","▁kau ppi","mma ksi","▁lop u","eita .","▁pur j","▁matka lla","▁pysty ssä","k kö","m isesta","p uoli","r in\n","▁s ell","▁o mia","▁p uun","un .","us la","▁sa mat","▁e u","▁ky sä","▁huo kasi","▁el sa","▁os asi","▁nuor et","▁pyy tää","päiv änä","▁or ri","kymmen en","▁ihmet teli","▁kunin kaa","▁eur oo","▁jaksan ut","r is","än ne","▁p uo","es tan","▁ku iva","eh än","maan sa","▁kuu ta","▁er ehd","▁hel mer","massa \n","▁syn tynyt","llaan .\n","▁ruu mista","▁silm issään","▁suku pol","▁johd osta","m een","in ,\n","▁j e","et .\n","el t","▁ka ina","ät \n","▁vi lle","▁mu lla","▁an si","▁kaik in","▁as ui","▁vä k","▁lu kea","▁las si.\n","▁tur ha","▁paljon ,","▁vie dä","▁nukku i","▁lait taa","▁ensimmä inen","▁mai ja","m ystä","▁h ät","▁a uta","ell en,","us taa","▁sa mma","iv an","▁ha ja","▁ole ,","ist uu","tään \n","▁kaun ista","▁juh an","▁anteeksi ,","▁suk ula","▁pin ja","▁erä ma","▁oola vi","m uka","ka usi","▁jo hto","ei llä","ma lle","▁to den","pp e","▁tuo li","ist ön","▁her ro","▁val vo","▁saa pu","▁häntä .\n","▁ro bert","▁rah at","▁mä r","▁aino ata","▁sekä \n","▁kät eensä","▁ymmär tää","matta .","▁ent inen","▁ir r","▁linn an","▁vän tt","e .","u c","it in","aa ksi","utta .","▁vi iden","▁ma ini","pa itsi","▁so f","▁vielä ,","▁suo si","jä \n","▁me \n","▁kyllä hän","▁hänet ,","▁g e","▁vaa ri","ltä \n","▁aika is","▁jät tänyt","▁vaat te","▁tarj o","d d","l em","p ut","▁k elta","▁s elä","ik kaa","▁mi ette","▁kat to","▁oike an","▁löy tänyt","▁toisi aan","▁rukoi li","j ään","o ri","in tä","ta ri","▁j unn","▁so dan","tö n","▁pois \n","▁mer i","▁rauh oit","▁pyy tä","▁josta in","vuo ti","▁om ina","▁aikoin a","▁pus er","▁s er","▁t h","es so","▁jo en","ks \n","ja ,\n","▁ki us","van .\n","uks issa","▁sitä paitsi","▁na isten","▁ho pea","massa .","koon .","▁ilm oitta","▁aam una","▁otta maan","▁johon kin","▁tahan sa","o ike","es ,","vi a,","▁tuo \n","▁te ,","kas sa,","lä isten","ksen ne","mp ana","▁pan nut","illa \n","illa ,","▁herr asi","▁tiesi ,","▁rukoi le","▁mas en","▁antoni us","o d","▁a pu","▁r yn","▁ka lle","▁mi ina","ja r","os ta\n","▁ma tar","▁kuu si","ha l","jen sa","ettu .","▁muuta mat","▁rauh assa","▁käd essä","▁yr ittä","▁egyp tin","▁yn nä","m s","▁h at","▁jo ille","▁r istiin","▁pa p","▁et tet","▁ol kaa","inen ,\n","▁ki i","▁nä in\n","▁po ja","... ?\n","▁pal an","▁teh tä","▁ke vä","▁hen ke","oa .\n","▁ymmär si","ettiin .","▁kasv oilla","▁mur h","▁kohti .\n","▁äänellä :\n","▁suos tu","ä ,\n","▁l ee","ik kaan","▁jo ihin","▁si d","▁ta ist","▁pa ino","▁mi r","man \n","uks ella","▁lu vat","▁kul ttuu","▁muu ka","tään .\n","▁mat in","▁mar tta","▁hal v","hta en","▁vaa ran","▁miten kä","▁jälk een,","▁lö ytyy","▁koi ran","mies ,","oon .","mpa an","▁toimi i","▁ylioppil as","kaik k","▁velvo llis","▁paist oi","s si","s te","▁p on","ka lla","at en","▁ku rit","▁ma asta","▁mu mm","▁as etta","▁al uksi","▁sil tä,","▁pit ivät","maa \n","▁ke vää","▁ho kkan","eltä ,","▁rauh an","▁sul ke","▁taka isin,","d ,","m uu","et o","ut .\n","ti on","▁ta ikka","▁ko lk","▁mi llään","▁tuo mari","▁men emään","▁pit kää","▁le pää","mp pa","▁kirj een","▁sä r","▁saat tanut","▁rat kais","▁tunnus mer","▁luj asti","▁kokko la:","▁jöij e","▁hokkan en:","is elta","ka \n","at .\n","▁hän :\n","▁ki ven","iv aa","▁ma kuu","▁to tu","▁kä rsin","uol e","▁van ki","▁ke tä","▁isän maa","▁hänelle ,","▁pitä s","▁ken g","▁uh ri","▁suuri ,","▁nous sut","▁tut kin","▁vaih e","▁hymyi llen","▁alakul o","▁h um","▁t utta","oi hin,","▁ollut kaan","asi \n","▁hä peä","▁miel ellään","▁kau kaa","▁pien o","▁sat tunut","▁hu v","▁tart tu","emp ana","▁muist utti","▁yle is","▁pieta ri","▁jaako b","▁annasti ina","in to","▁r ut","oi mme","ja an,","▁al haa","▁so uta","▁kyl män","yttä nyt","isti \n","▁puol u","▁sä p","▁vaa r","▁kuiten kin\n","▁tois aa","▁oo \n","▁kiir ehti","▁käsky n","▁kump ikin","h et","p el","s ,","v ästä","▁ urs","▁ ukon","ti l","▁va el","utta maan","▁ki itä","▁kaik en,","▁as etti","▁val de","pi el","▁siellä ,","▁d uun","▁sella ista,","▁vall es","▁istu maan","▁eläm ästä","▁puna inen","hi mi","▁myön si","▁saap unut","▁ista hti","n it","y ,","is keli","ei le","▁san ot","▁po v","em malla","▁min ulle,","nut .\n","ni .","▁tai ta","ön ,","▁ke v","▁hel vin","itti vät","▁mer kit","▁kyy ti","▁puhd as","j ek","m ista,","ll ani","ka ,","▁jo r","▁r ys","yt \n","▁e e","▁e iks","▁ra jat","▁as uu","▁tul ta","▁yh tenä","han \n","▁luo ta","▁lu paa","▁jota kin,","▁oike us","▁olla .","▁i an","uun .\n","▁hal un","▁käs ittää","▁las k","▁kuo h","▁epä rö","▁kai pa","rä pä","▁ras kaa","▁mark us","▁luul et","▁st ella","▁ag ri","järj es","▁miljo on","o va","ll isin","ka ista","▁n oiden","vä llä","mat ta\n","eet .","▁le p","▁ri ittää","▁oike in\n","▁ään et","▁puol estaan","▁asi oista","▁väh emmän","▁ver rat","▁ul a","▁pol ku","▁sinne ,","▁elämän i","▁väl t","oja .","▁voit on","▁uud ell","▁käd essään","▁pil v","▁talon poika","▁omitu inen","▁tyyn esti","▁kulu essa","▁välin pitä","▁ruven nut","b e","h te","k ähti","u en","y an","ö ri","▁s ei","▁h ik","▁o min","▁p uus","▁sa ll","▁ki p","▁la mp","▁mu ille","▁kat o","▁kos ket","▁ään eti","itti \n","kee \n","▁ympäri llään","ity ksen","▁miks ei","▁alka en","▁vali tta","▁juli a","b o","▁k öy","▁v eh","ik in\n","▁en na","ty neen","▁po j","▁hy viä","▁vä lk","▁tuo ki","ist etty","asti .","▁hä tään","maa il","▁oike esti","▁hyvä r","▁mies .","uutta ,","▁pu ll","▁lapsi ,","▁tyh jen","▁venä jän","▁kirko ssa","luo n","! ...\n","k ky","k ytti","▁n uh","▁r es","▁ta kas","utta en","▁mi estä,","▁san gen","▁mu i","▁tu p","▁tu van","oit tanut","▁läh den","▁ä mm","▁maa la","▁ke vään","▁puol usta","id an","▁sinne \n","▁päät tänyt","▁rup e","▁toiv on","▁kulki vat","▁silmän räpä","▁kel paa","▁ajattel em","▁ren ki","▁ut elia","▁helsin g","▁veljen sä","e ksen","et y","ei tä,","▁ku vaa","inä \n","▁ki pe","▁mu uttaa","▁tuo v","▁ä rj","▁na h","▁luo v","▁miel essä","▁sel vää","▁yli op","▁mikä li","▁myös kään","▁juuri \n","▁oll i","ito ista","▁löy tä","ny ks","▁lan g","▁toisten sa","▁liikke elle","▁lähetti l","▁pasto ri","j as","▁si yan","vi lla","▁men o","▁ed esta","▁oike uden","▁i i","▁ennen \n","▁el in","osta .\n","▁oh ja","▁luu lta","▁in f","▁näki ,","▁löy tää","▁sanon ut,","▁kyy nä","▁paljo a","▁yo u","▁tuov inen:","▁ta kia","mm eni","isi in.","tel en","▁ihm inen,","▁päiv ä,","▁mat kusta","▁tämän \n","▁tiet ois","▁näki vät","▁kesk uud","▁pitk ät","▁ap ua","▁selit tä","▁varmaan kin","▁ilmesty s","▁hypp äsi","▁varo va","▁kork ei","▁sään nö","▁into him","e mi","▁m eh","▁o tan","▁l eena","▁mi tää","▁en er","▁la ur","▁ra han","▁te ur","▁men että","tuu \n","▁kät tä","▁jat kaa","▁aika a,","yty ivät","▁esi lle","▁herran sa","▁älä kä","▁tap asi","▁suom essa","mesta ri","▁perkel e","kir ja","h uut","p unut","is mi","▁jo un","▁vi ll","▁tuo ksu","▁al ko","▁voi ta","lo w","▁sano vat","▁miel u","▁olen to","▁ve is","▁c hi","▁pe tä","▁täällä \n","▁naur aa","llisen \n","▁väl ähti","▁koti in,","itta in","▁asti .\n","▁laa j","▁kiih keästi","▁vuor oin","▁kysymy ks","▁harv oin","▁suhte essa","k ik","m asi","o sa","v es","▁jo htaa","us taan","va lle","ot in","ty neenä","pa ikka","im in","▁lu vannut","etta .","▁kor ja","▁käs ke","▁kerran ,","ltä .","▁kään n","▁jossa \n","▁jälk eensä","▁han nu","▁uud et","▁tarv its","▁asti .","▁pen ki","▁terv ehd","▁käv ivät","▁helvet in","▁anne taan","▁kyynä r","h as","l eh","t isi","▁j ys","▁p osti","yt ys","▁ka hta","il ta,","ät tö","▁ei ra","to ver","▁e ver","ten sa","mat tomasti","▁na i","kki \n","llis eksi","▁ennen kin","▁ar vi","po li","▁viime iset","▁vall itsi","▁rakka utta","her ran","▁mol empi","▁koet taa","▁onne a","▁ahd ista","▁usei mmat","a kko","m yyden","s uo","u .\n","is uut","▁h ellä","ri an","eh an","▁an im","asti .\n","▁suu s","▁b o","jan ,","uksen .","▁ho rj","▁sel kään","▁suur esti","istel e","▁hyv äs","▁johd at","▁herät ti","▁ystävän i","r r","r es","▁ ui","is ä","▁jo ki","▁a vo","us tu","▁ka ta","ista an,","la inen,","▁san oit","se e","▁kaik essa","uks eksi","▁tul et","▁vaik uttaa","kki in","▁jota \n","▁pel käs","▁herra lle","itti ,","▁saanut \n","▁ven een","▁vall assa","▁isra el","▁joten kin","▁menn essään","▁olis iko","▁kahdeks an","▁vars ina","h ot","m ik","s uu","▁si emen","tu \n","▁vi it","▁vi de","▁ky en","lä inen","▁suo sit","▁luo nut","▁lu ut","▁asi assa","▁tot uus","etty ä","▁tyt ö","▁luu le","my ks","▁til an","▁lyh yt","▁tas kus","▁haav oit","▁ruumiin sa","▁säik äh","p ö","ut uneet","▁n ei","▁n ostaa","ti en","▁ka ver","▁ko mp","▁pa imen","▁sa de","ten sä","pa \n","vi ,","vi a\n","▁tu k","▁joka päivä","▁pää llä,","▁sy ven","uks et,","▁li ia","▁ne its","mat onta","▁par empaa","▁kirj oitti","▁c a","▁pys yi","▁pyy n","▁mielen kiin","▁nyky ään","▁suut eli","▁joh tui","▁gabri el","d it","m ur","p ät","v äs","▁se ud","▁vi rs","▁ki ell","▁kun no","▁nä e","pp asi","▁tuo lta","▁ä i","na lla","▁lu pasi","tiin .\n","▁sano taan","▁ri ittä","yn \n","▁ään en","▁puol elle","▁yks ikään","▁kuo lle","▁minua \n","▁naur ahti","▁sul j","▁näky mättö","▁pur isti","▁kysyi :\n","▁eikö hän","▁sal ee","▁lev ottom","▁huom asi,","▁ryh tyi","▁perus te","▁kirkko herra","hu an","▁suor astaan","t ista","▁r atta","▁val v","▁ne it","tti \n","▁vaik utta","▁lo uk","▁lu mo","▁kul kea","maa han","▁miel estään","▁juo s","▁pys yy","▁katso o","▁laul un","▁sul ki","▁kon s","▁talo ud","▁pil ka","▁koi rat","▁leh d","▁kell on","oihin .","emp änä","▁keskus telu","▁inn o","▁mit kä","▁ymmärr ät","▁nimis mies","▁anim ation\n","g h","y r","is ,","is iksi","is kel","▁h iv","ka ppa","aa r","▁ta m","▁ko ki","ät tää","▁vi il","to ri","▁nä ihin","▁as en","teli ,","▁su v","▁kats oa","yn een","▁myö hä","ita \n","uksen a","tin sa","▁hil jan","ässä .","vaa .","▁käs k","▁os oitta","▁c ec","▁miten \n","▁vel ji","ili a","▁hilja inen","▁tunn usta","▁jal at","▁kai paa","▁ulos ,","▁seisoi vat","▁ajattel in","▁paran n","▁z huan","▁syöks yi","▁zhuan g:","n ne","is san","ut en","▁a d","oi lla,","▁ta van","os ,","▁san ansa","oin ti","▁pal oni","▁b e","▁sano vat:","▁tää l","▁voin eet","▁epä määrä","▁tuh at","▁ihmis hen","▁muo to","▁siv isty","▁talon po","▁kr ist","▁erä maan","▁ranna lla","▁tär keä","▁uska lta","▁aakus ti","m el","å l","▁ isi","ll esi","ll ansa","▁o massa","▁p urska","ti ö","▁et elä","▁vi iko","pa in","pa le","oin a","▁il tan","tan u","▁lu kee","jä .","▁jota i","jaa \n","▁luu llut","▁vih aa","▁koskaan \n","▁ympäri lleen","▁tunte a","▁metsä stä","▁u sa","▁u pp","▁kad ulla","▁uno h","▁kirjoit taa","▁kann atta","▁älkää kä","matto mat","▁put osi","e in","k kon","m usta","t .","u maan","ta maan","is em","▁o lle","▁jo ukon","▁va va","oi d","ty n","ty neet","▁tuo tta","van i","ises sa\n","▁sin ulle,","▁her ättä","▁huo matta","kki ,","▁su lle","▁ke ks","▁ho mm","▁suur essa","▁d an","▁sä v","▁hal tu","etty ,","▁yhtä kki","▁katso en","▁epä luu","▁mieli pit","oja \n","▁yhd eks","▁run oili","▁saada kseen","▁viho llis","▁tälla ista","▁aiko ja","▁saav utta","▁luosta rin","▁harv ina","▁kiire esti","▁joos ua","▁nuk kun","▁tavat toman","▁län si","▁tyrk kö","v oit","▁k b\n","▁s mo","▁n uol","▁oli .\n","▁pa rv","▁et sin","▁vi ina","▁vi ini","▁kun n","▁san ottiin","▁is on","lä isen","▁ihm istä","▁teh tiin","▁pel to","▁har taasti","▁pan kki","▁pitä j","▁vaa li","ellen .","▁luu lin","▁pääs tyään","▁tahto isi","▁sää d","▁saman a","▁ah ker","▁kohd alla","▁soti las","b en","▁ ...\n","is istä","▁o malla","een ,\n","va .","la isille","▁to ta","▁ra at","pp ia","asi .\n","▁luo kseni","▁kuul ua","▁hi er","men tti","▁miel ell","mät tä,","▁pois tu","▁vähän \n","▁w a","ust us","llisesti ,","▁mistä än","▁kuk kul","▁maun u","▁ste f","▁väk isin","h otta","j uh","m yyd","▁p lan","▁r istin","▁ta ppa","ki i","▁ko me","ot ettu","oin ,","▁il oa","▁hei mo","▁tul tuaan","▁su unta","▁ke vy","▁el ina","▁luu len","▁lop etti","▁tunn in","▁kaupun kiin","pu ku","▁ent isen","▁aut o","▁silm ää","kk änä","▁lopp ui","▁kuun tele","▁suoma lainen","▁tyrkkö :","b ed","f a","▁m itta","▁m äärin","▁o mi","ell ut,","ma isi","▁ni itten","ot teli","▁ki eh","▁ki ukku","▁al usta","▁ä rs","▁saa \n","▁hä mi","▁le a","hti \n","▁tar ke","▁i rjan","▁its eni","▁täyt tää","▁hal ki","▁jumala lle","▁tulee \n","kel in","▁py r","▁pur ka","▁kans san","▁voima kkaa","vas tin","▁hell ästi","▁tähden ,","▁ry hd","▁tarkoit us","i mmat","▁j uud","et tä,","▁n um","un een","oi ,","▁ka mari","▁pa kkas","isi in\n","ista ,\n","▁e er","▁la kan","▁ha ukku","▁ole kaan","▁ä mmä","▁pä in.\n","▁muut tunut","ossa an","▁ul kon","ensä ,","▁eivät kö","▁pois tui","▁kuo lleen","▁katso maan,","▁pol t","▁kansa a","▁josta kin","▁silmi en","▁hyv in,","▁parha iten","▁kumar tui","▁pyyh kä","▁riipp ui","▁kruun un","▁ruustin na","▁cec ilia","k kei","t ta,","ik ell","ik ul","oi \n","▁ta isi","▁ka mm","ko ssa","lle kin","va lo","▁hä ikä","▁teh neet","▁par emm","▁tot ta,","mit ta","▁vanh a,","▁sur un","oo \n","▁eli a","▁rä m","▁varten ,","▁täyd ellisesti","▁lah j","▁noud atta","▁ihmisi ä,","r un","ka isin","la us","▁ma ja","▁pi ka","▁mitä hän","▁al kuun","ises ta\n","▁no jat","▁jä ivät","▁so vi","▁ed eltä","▁het i\n","▁oike alla","▁ään tä","▁onn istu","ellen .\n","▁lei ri","▁nousi vat","▁muuten kin","▁valko inen","▁sair aa","▁jouko sta","▁lien e","▁yrit tää","▁at eri","o pi","▁ estä","▁t emp","▁ka llis","▁ko vaa","▁pa ro","▁li ike","▁vielä kään","▁per s","▁kats elee","mo ja","▁ar ki","▁juo sta","▁yhtä \n","▁nuor empi","▁ehkä pä","▁toinen \n","▁in s","▁mun kki","▁kesk elle","▁jolla in","▁edessä .",
[...]
